{
  "just": 1,
  "love": 2,
  "black": 3,
  "and": 4,
  "white": 5,
  "working": 6,
  "on": 7,
  "stock": 8,
  "getting": 9,
  "ready": 10,
  "for": 11,
  "a": 12,
  "big": 13,
  "show": 14,
  "kris": 15,
  "##lyn": 16,
  "##sk": 17,
  "##rea": 18,
  "##tions": 19,
  "com": 20,
  "all": 21,
  "wrapped": 22,
  "up": 23,
  "late": 24,
  "night": 25,
  "ka": 26,
  "##le": 27,
  "salad": 28,
  "-": 29,
  "tuna": 30,
  "av": 31,
  "##oca": 32,
  "##do": 33,
  "corn": 34,
  "hearts": 35,
  "of": 36,
  "palm": 37,
  "plants": 38,
  "that": 39,
  "give": 40,
  "us": 41,
  "life": 42,
  "gorgeous": 43,
  "morning": 44,
  "what": 45,
  "happened": 46,
  "when": 47,
  "the": 48,
  "mission": 49,
  "played": 50,
  "self": 51,
  "##ies": 52,
  "kind": 53,
  "man": 54,
  "thankful": 55,
  "such": 56,
  "wonderful": 57,
  "beautiful": 58,
  "thanksgiving": 59,
  "always": 60,
  "praying": 61,
  "because": 62,
  "god": 63,
  "knows": 64,
  "my": 65,
  "heart": 66,
  "phone": 67,
  "action": 68,
  "shot": 69,
  "those": 70,
  "who": 71,
  "don": 72,
  "'": 73,
  "t": 74,
  "eat": 75,
  "beef": 76,
  "we": 77,
  "had": 78,
  "chicken": 79,
  "now": 80,
  "day": 81,
  "18": 82,
  "cup": 83,
  "##cake": 84,
  "way": 85,
  "turn": 86,
  "##t": 87,
  "its": 88,
  "back": 89,
  "i": 90,
  "survived": 91,
  "regular": 92,
  "boring": 93,
  "hair": 94,
  "3": 95,
  "weeks": 96,
  "lo": 97,
  "##l": 98,
  "hope": 99,
  "everyone": 100,
  "great": 101,
  "saturday": 102,
  "is": 103,
  "first": 104,
  "time": 105,
  "playing": 106,
  "fr": 107,
  "##is": 108,
  "##bee": 109,
  "golf": 110,
  "tag": 111,
  "friend": 112,
  "loves": 113,
  "lamb": 114,
  "##org": 115,
  "things": 116,
  "aren": 117,
  "they": 118,
  "seem": 119,
  "takes": 120,
  "last": 121,
  "trouble": 122,
  "person": 123,
  "mike": 124,
  "welcome": 125,
  "to": 126,
  "nut": 127,
  "house": 128,
  "nice": 129,
  "work": 130,
  "@username": 131,
  "caught": 132,
  "with": 133,
  "food": 134,
  "in": 135,
  "her": 136,
  "mouth": 137,
  "how": 138,
  "would": 139,
  "know": 140,
  "it": 141,
  "m": 142,
  "cat": 143,
  "mothers": 144,
  "card": 145,
  "2013": 146,
  "ti": 147,
  "##ring": 148,
  "ha": 149,
  "##ha": 150,
  "long": 151,
  "din": 152,
  "exercise": 153,
  "hide": 154,
  "you": 155,
  "want": 156,
  "can": 157,
  "still": 158,
  "see": 159,
  "s": 160,
  "social": 161,
  "d": 162,
  "our": 163,
  "wedding": 164,
  "awesome": 165,
  "bus": 166,
  "travels": 167,
  "eye": 168,
  "tiger": 169,
  "dad": 170,
  "was": 171,
  "taking": 172,
  "picture": 173,
  "view": 174,
  "somewhere": 175,
  "no": 176,
  "##fi": 177,
  "##lter": 178,
  "coconut": 179,
  "shake": 180,
  "heat": 181,
  "out": 182,
  "tastes": 183,
  "more": 184,
  "vanilla": 185,
  "than": 186,
  "this": 187,
  "look": 188,
  "going": 189,
  "or": 190,
  "nah": 191,
  "heaven": 192,
  "too": 193,
  "cool": 194,
  "everything": 195,
  "candy": 196,
  "station": 197,
  "sand": 198,
  "##name": 199,
  "##nt": 200,
  "making": 201,
  "at": 202,
  "zoo": 203,
  "quick": 204,
  "ru": 205,
  "##ck": 206,
  "over": 207,
  "east": 208,
  "bay": 209,
  "he": 210,
  "risen": 211,
  "snow": 212,
  "##boarding": 213,
  "park": 214,
  "city": 215,
  "never": 216,
  "old": 217,
  "have": 218,
  "fun": 219,
  "get": 220,
  "adorable": 221,
  "these": 222,
  "pictures": 223,
  "turned": 224,
  "blog": 225,
  "##ging": 226,
  "aftermath": 227,
  "adventures": 228,
  "by": 229,
  "lucky": 230,
  "peak": 231,
  "gold": 232,
  "glitter": 233,
  "paint": 234,
  "anyone": 235,
  "ok": 236,
  "some": 237,
  "people": 238,
  "school": 239,
  "today": 240,
  "tomorrow": 241,
  "but": 242,
  "do": 243,
  "not": 244,
  "poor": 245,
  "living": 246,
  "dream": 247,
  "delicious": 248,
  "go": 249,
  "healthy": 250,
  "lunch": 251,
  "eggs": 252,
  "benedict": 253,
  "br": 254,
  "##io": 255,
  "##che": 256,
  "bacon": 257,
  "ham": 258,
  "new": 259,
  "mexico": 260,
  "where": 261,
  "green": 262,
  "chile": 263,
  "##s": 264,
  "your": 265,
  "subway": 266,
  "sandwich": 267,
  "bangkok": 268,
  "from": 269,
  "above": 270,
  "cent": 271,
  "##ara": 272,
  "so": 273,
  "much": 274,
  "##ness": 275,
  "evening": 276,
  "trio": 277,
  "menu": 278,
  "notes": 279,
  "valley": 280,
  "leaves": 281,
  "year": 282,
  "left": 283,
  "right": 284,
  "something": 285,
  "definitely": 286,
  "happy": 287,
  "off": 288,
  "take": 289,
  "mirror": 290,
  "home": 291,
  "photo": 292,
  "thanks": 293,
  "hard": 294,
  "male": 295,
  "##cent": 296,
  "skeleton": 297,
  "waiting": 298,
  "party": 299,
  "jewel": 300,
  "vintage": 301,
  "pa": 302,
  "##ve": 303,
  "rhine": 304,
  "##stone": 305,
  "collar": 306,
  "necklace": 307,
  "bundle": 308,
  "cold": 309,
  "one": 310,
  "there": 311,
  "sweet": 312,
  "subject": 313,
  "why": 314,
  "took": 315,
  "then": 316,
  "course": 317,
  "sis": 318,
  "##sy": 319,
  "wanted": 320,
  "me": 321,
  "come": 322,
  "lay": 323,
  "down": 324,
  "cher": 325,
  "##ished": 326,
  "##mo": 327,
  "##ments": 328,
  "are": 329,
  "wa": 330,
  "##aa": 331,
  "##ay": 332,
  "top": 333,
  "lavender": 334,
  "blue": 335,
  "tequila": 336,
  "added": 337,
  "yu": 338,
  "##m": 339,
  "para": 340,
  "##dor": 341,
  "##a": 342,
  "##ie": 343,
  "vs": 344,
  "days": 345,
  "cocktail": 346,
  "rice": 347,
  "pad": 348,
  "##dies": 349,
  "someone": 350,
  "cleaned": 351,
  "graffiti": 352,
  "kitchen": 353,
  "will": 354,
  "make": 355,
  "sunday": 356,
  "##ba": 357,
  "##king": 358,
  "oven": 359,
  "roasted": 360,
  "bb": 361,
  "##q": 362,
  "season": 363,
  "##ing": 364,
  "shrimp": 365,
  "post": 366,
  "workout": 367,
  "protein": 368,
  "packed": 369,
  "dinner": 370,
  "winning": 371,
  "wait": 372,
  "stitch": 373,
  "wash": 374,
  "cover": 375,
  "fi": 376,
  "##lth": 377,
  "bean": 378,
  "lap": 379,
  "ho": 380,
  "##ora": 381,
  "##y": 382,
  "marketing": 383,
  "promo": 384,
  "bro": 385,
  "##chu": 386,
  "##res": 387,
  "need": 388,
  "designs": 389,
  "##g": 390,
  "##we": 391,
  "##lt": 392,
  "chicago": 393,
  "fashion": 394,
  "mansion": 395,
  "has": 396,
  "##un": 397,
  "##ch": 398,
  "be": 399,
  "reunited": 400,
  "girl": 401,
  "bit": 402,
  "looking": 403,
  "da": 404,
  "##pper": 405,
  "traffic": 406,
  "light": 407,
  "color": 408,
  "palette": 409,
  "beach": 410,
  "mel": 411,
  "##say": 412,
  "birthday": 413,
  "grandma": 414,
  "miss": 415,
  "may": 416,
  "lose": 417,
  "small": 418,
  "ones": 419,
  "win": 420,
  "oh": 421,
  "##ick": 422,
  "like": 423,
  "devils": 424,
  "thumb": 425,
  "ranch": 426,
  "valentine": 427,
  "ba": 428,
  "##va": 429,
  "made": 430,
  "boyfriend": 431,
  "passion": 432,
  "99": 433,
  "certain": 434,
  "gunn": 435,
  "wear": 436,
  "under": 437,
  "clothes": 438,
  "leave": 439,
  "starting": 440,
  "quiet": 441,
  "without": 442,
  "him": 443,
  "around": 444,
  "bad": 445,
  "news": 446,
  "bob": 447,
  "vivid": 448,
  "pink": 449,
  "silver": 450,
  "pure": 451,
  "bronze": 452,
  "beauty": 453,
  "93": 454,
  "##36": 455,
  "##0": 456,
  "##6": 457,
  "##8": 458,
  "u": 459,
  "r": 460,
  "good": 461,
  "staying": 462,
  "avoiding": 463,
  "below": 464,
  "zero": 465,
  "weather": 466,
  "week": 467,
  "dramatic": 468,
  "sunrise": 469,
  "soaking": 470,
  "wet": 471,
  "after": 472,
  "dancing": 473,
  "le": 474,
  "swan": 475,
  "very": 476,
  "needs": 477,
  "space": 478,
  "kitty": 479,
  "swim": 480,
  "##suit": 481,
  "dress": 482,
  "patriotic": 483,
  "wreath": 484,
  "fabric": 485,
  "2": 486,
  "silly": 487,
  "face": 488,
  "princess": 489,
  "head": 490,
  "##ap": 491,
  "listed": 492,
  "link": 493,
  "profile": 494,
  "wouldn": 495,
  "red": 496,
  "help": 497,
  "pick": 498,
  "ladies": 499,
  "thinking": 500,
  "start": 501,
  "final": 502,
  "piece": 503,
  "mock": 504,
  "try": 505,
  "stay": 506,
  "positive": 507,
  "even": 508,
  "if": 509,
  "feel": 510,
  "world": 511,
  "falling": 512,
  "apart": 513,
  "6": 514,
  "miles": 515,
  "warm": 516,
  "humidity": 517,
  "reno": 518,
  "bound": 519,
  "crazy": 520,
  "chicks": 521,
  "smoky": 522,
  "quartz": 523,
  "point": 524,
  "leaving": 525,
  "port": 526,
  "cruise": 527,
  "con": 528,
  "##fa": 529,
  "away": 530,
  "string": 531,
  "art": 532,
  "finished": 533,
  "roommate": 534,
  "champagne": 535,
  "best": 536,
  "ever": 537,
  "looks": 538,
  "p": 539,
  "train": 540,
  "museum": 541,
  "stop": 542,
  "watching": 543,
  "checking": 544,
  "wind": 545,
  "almost": 546,
  "fell": 547,
  "pond": 548,
  "earlier": 549,
  "doing": 550,
  "macro": 551,
  "clover": 552,
  "daddy": 553,
  "sunshine": 554,
  "roses": 555,
  "autumn": 556,
  "gardens": 557,
  "as": 558,
  "chris": 559,
  "brown": 560,
  "hobby": 561,
  "monday": 562,
  "steamed": 563,
  "w": 564,
  "fresh": 565,
  "crisp": 566,
  "raw": 567,
  "ve": 568,
  "##gg": 569,
  "sending": 570,
  "motivation": 571,
  "##al": 572,
  "texts": 573,
  "every": 574,
  "game": 575,
  "ask": 576,
  "own": 577,
  "business": 578,
  "dark": 579,
  "chocolate": 580,
  "cake": 581,
  "ta": 582,
  "##sty": 583,
  "break": 584,
  "office": 585,
  "il": 586,
  "##ove": 587,
  "##my": 588,
  "##jo": 589,
  "##b": 590,
  "progress": 591,
  "drawing": 592,
  "rose": 593,
  "bullet": 594,
  "##yr": 595,
  "##ite": 596,
  "accent": 597,
  "sports": 598,
  "2015": 599,
  "favorite": 600,
  "real": 601,
  "wonderland": 602,
  "hanging": 603,
  "mum": 604,
  "got": 605,
  "huge": 606,
  "box": 607,
  "easter": 608,
  "bunny": 609,
  "sister": 610,
  "went": 611,
  "here": 612,
  "g": 613,
  "v": 614,
  "kid": 615,
  "store": 616,
  "boom": 617,
  "rep": 618,
  "##ost": 619,
  "funny": 620,
  "place": 621,
  "jet": 622,
  "stream": 623,
  "reflection": 624,
  "two": 625,
  "vega": 626,
  "##ns": 627,
  "9": 628,
  "years": 629,
  "does": 630,
  "shirt": 631,
  "bracelet": 632,
  "blues": 633,
  "views": 634,
  "island": 635,
  "found": 636,
  "cal": 637,
  "##tor": 638,
  "grape": 639,
  "picking": 640,
  "hills": 641,
  "italy": 642,
  "##nu": 643,
  "##ggle": 644,
  "helps": 645,
  "laundry": 646,
  "f": 647,
  "myself": 648,
  "mint": 649,
  "tu": 650,
  "##rba": 651,
  "##n": 652,
  "thoughts": 653,
  "design": 654,
  "enjoying": 655,
  "fantastic": 656,
  "grace": 657,
  "asian": 658,
  "rip": 659,
  "died": 660,
  "movie": 661,
  "theater": 662,
  "re": 663,
  "ice": 664,
  "cream": 665,
  "date": 666,
  "groom": 667,
  "##ers": 668,
  "christmas": 669,
  "coming": 670,
  "soon": 671,
  "excited": 672,
  "ad": 673,
  "##fin": 674,
  "##it": 675,
  "##um": 676,
  "wake": 677,
  "call": 678,
  "11": 679,
  "puppy": 680,
  "todd": 681,
  "##ler": 682,
  "stick": 683,
  "their": 684,
  "having": 685,
  "building": 686,
  "marsh": 687,
  "##mal": 688,
  "##low": 689,
  "towers": 690,
  "baby": 691,
  "##sit": 692,
  "##ting": 693,
  "king": 694,
  "words": 695,
  "advice": 696,
  "being": 697,
  "28": 698,
  "b": 699,
  "##day": 700,
  "saw": 701,
  "ah": 702,
  "##hh": 703,
  "beast": 704,
  "tell": 705,
  "ya": 706,
  "mama": 707,
  "pulled": 708,
  "another": 709,
  "mine": 710,
  "close": 711,
  "area": 712,
  "##ffle": 713,
  "puff": 714,
  "sleeves": 715,
  "everywhere": 716,
  "hilton": 717,
  "c": 718,
  "line": 719,
  "library": 720,
  "maybe": 721,
  "grandpa": 722,
  "##berry": 723,
  "pancakes": 724,
  "homemade": 725,
  "syrup": 726,
  "guess": 727,
  "lamp": 728,
  "trying": 729,
  "walk": 730,
  "along": 731,
  "shore": 732,
  "asa": 733,
  "rico": 734,
  "##tta": 735,
  "egg": 736,
  "whites": 737,
  "turkey": 738,
  "bag": 739,
  "##el": 740,
  "sandy": 741,
  "mmm": 742,
  "mark": 743,
  "candles": 744,
  "capt": 745,
  "##ion": 746,
  "merry": 747,
  "x": 748,
  "mas": 749,
  "y": 750,
  "his": 751,
  "socks": 752,
  "co": 753,
  "##o": 754,
  "cats": 755,
  "##of": 756,
  "##ins": 757,
  "##tagram": 758,
  "kids": 759,
  "tb": 760,
  "sure": 761,
  "mini": 762,
  "carts": 763,
  "##en": 764,
  "comes": 765,
  "talent": 766,
  "class": 767,
  "tonight": 768,
  "dahl": 769,
  "##ias": 770,
  "lad": 771,
  "##ner": 772,
  "village": 773,
  "market": 774,
  "10": 775,
  "8": 776,
  "next": 777,
  "gotta": 778,
  "heated": 779,
  "throw": 780,
  "guys": 781,
  "fry": 782,
  "fuck": 783,
  "drugs": 784,
  "hang": 785,
  "##overs": 786,
  "loose": 787,
  "leaf": 788,
  "yours": 789,
  "live": 790,
  "loud": 791,
  "spent": 792,
  "cong": 793,
  "##rat": 794,
  "tony": 795,
  "tiffany": 796,
  "dedication": 797,
  "appear": 798,
  "terrible": 799,
  "case": 800,
  "mondays": 801,
  "ne": 802,
  "##rd": 803,
  "level": 804,
  "epic": 805,
  "ra": 806,
  "##d": 807,
  "fucking": 808,
  "colour": 809,
  "combo": 810,
  "weekend": 811,
  "yet": 812,
  "far": 813,
  "california": 814,
  "roll": 815,
  "side": 816,
  "stink": 817,
  "please": 818,
  "plant": 819,
  "little": 820,
  "sleepy": 821,
  "##liest": 822,
  "family": 823,
  "##cr": 824,
  "##ush": 825,
  "##mond": 826,
  "guy": 827,
  "gym": 828,
  "smooth": 829,
  "n": 830,
  "await": 831,
  "often": 832,
  "messages": 833,
  "most": 834,
  "profound": 835,
  "glad": 836,
  "partner": 837,
  "keeps": 838,
  "motivated": 839,
  "aliens": 840,
  "attacked": 841,
  "##iary": 842,
  "trees": 843,
  "outside": 844,
  "room": 845,
  "pops": 846,
  "qui": 847,
  "##sen": 848,
  "grandfather": 849,
  "teaching": 850,
  "niece": 851,
  "fish": 852,
  "##co": 853,
  "##cam": 854,
  "darkness": 855,
  "woman": 856,
  "fishing": 857,
  "nothing": 858,
  "quality": 859,
  "memorial": 860,
  "##time": 861,
  "reunion": 862,
  "south": 863,
  "mil": 864,
  "marriage": 865,
  "mushroom": 866,
  "british": 867,
  "bugs": 868,
  "val": 869,
  "hunt": 870,
  "covered": 871,
  "apple": 872,
  "proud": 873,
  "parent": 874,
  "mom": 875,
  "th": 876,
  "##rift": 877,
  "find": 878,
  "seas": 879,
  "##hell": 880,
  "drew": 881,
  "name": 882,
  "shopping": 883,
  "mi": 884,
  "fathers": 885,
  "stairway": 886,
  "rest": 887,
  "arrive": 888,
  "thursday": 889,
  "discovered": 890,
  "magical": 891,
  "tri": 892,
  "##lli": 893,
  "other": 894,
  "wild": 895,
  "##flower": 896,
  "rush": 897,
  "since": 898,
  "delayed": 899,
  "5": 900,
  "hours": 901,
  "##gh": 902,
  "meat": 903,
  "spin": 904,
  "##ach": 905,
  "pan": 906,
  "forget": 907,
  "about": 908,
  "website": 909,
  "bio": 910,
  "enjoy": 911,
  "##pp": 912,
  "desert": 913,
  "ex": 914,
  "##pen": 915,
  "thanking": 916,
  "wine": 917,
  "energy": 918,
  "marking": 919,
  "20": 920,
  "char": 921,
  "si": 922,
  "##u": 923,
  "##away": 924,
  "neighborhood": 925,
  "stall": 926,
  "333": 927,
  "365": 928,
  "##back": 929,
  "through": 930,
  "started": 931,
  "project": 932,
  "peanut": 933,
  "butter": 934,
  "crack": 935,
  "lush": 936,
  "haul": 937,
  "yes": 938,
  "part": 939,
  "dig": 940,
  "roman": 941,
  "xx": 942,
  "texas": 943,
  "cowboy": 944,
  "wicked": 945,
  "ste": 946,
  "##ed": 947,
  "previous": 948,
  "pic": 949,
  "full": 950,
  "details": 951,
  "crying": 952,
  "cute": 953,
  "road": 954,
  "##trip": 955,
  "seriously": 956,
  "bell": 957,
  "run": 958,
  "manly": 959,
  "monument": 960,
  "colors": 961,
  "treat": 962,
  "scotch": 963,
  "##th": 964,
  "soup": 965,
  "13": 966,
  "success": 967,
  "bike": 968,
  "biking": 969,
  "ending": 970,
  "gonna": 971,
  "kara": 972,
  "##oke": 973,
  "friday": 974,
  "##night": 975,
  "reflecting": 976,
  "sucks": 977,
  "compared": 978,
  "hers": 979,
  "putting": 980,
  "brave": 981,
  "faces": 982,
  "inspirational": 983,
  "she": 984,
  "pork": 985,
  "burger": 986,
  "sauce": 987,
  "mo": 988,
  "##zza": 989,
  "##rella": 990,
  "cheese": 991,
  "results": 992,
  "group": 993,
  "email": 994,
  "threads": 995,
  "supplies": 996,
  "hi": 997,
  "empty": 998,
  "parking": 999,
  "lot": 1000,
  "##uts": 1001,
  "chi": 1002,
  "##ant": 1003,
  "##i": 1004,
  "sm": 1005,
  "##oth": 1006,
  "##ered": 1007,
  "kisses": 1008,
  "##oo": 1009,
  "##ches": 1010,
  "beginnings": 1011,
  "piano": 1012,
  "let": 1013,
  "lasts": 1014,
  "possibly": 1015,
  "done": 1016,
  "probably": 1017,
  "yoga": 1018,
  "quotes": 1019,
  "15": 1020,
  "16": 1021,
  "fancy": 1022,
  "vienna": 1023,
  "sc": 1024,
  "##hn": 1025,
  "only": 1026,
  "better": 1027,
  "used": 1028,
  "heads": 1029,
  "##tan": 1030,
  "cara": 1031,
  "##mel": 1032,
  "cu": 1033,
  "##star": 1034,
  "pudding": 1035,
  "thank": 1036,
  "singapore": 1037,
  "maps": 1038,
  "showing": 1039,
  "early": 1040,
  "winter": 1041,
  "mornings": 1042,
  "brief": 1043,
  "moment": 1044,
  "stands": 1045,
  "su": 1046,
  "##cc": 1047,
  "##ulent": 1048,
  "met": 1049,
  "alcohol": 1050,
  "cozy": 1051,
  "discover": 1052,
  "gateway": 1053,
  "adventure": 1054,
  "lord": 1055,
  "impressed": 1056,
  "summer": 1057,
  "interview": 1058,
  "royal": 1059,
  "graduation": 1060,
  "successful": 1061,
  "true": 1062,
  "legend": 1063,
  "##dia": 1064,
  "##te": 1065,
  "vibe": 1066,
  "daughter": 1067,
  "well": 1068,
  "put": 1069,
  "breaks": 1070,
  "root": 1071,
  "beer": 1072,
  "float": 1073,
  "host": 1074,
  "later": 1075,
  "finally": 1076,
  "50": 1077,
  "cards": 1078,
  "boy": 1079,
  "many": 1080,
  "surprisingly": 1081,
  "afternoon": 1082,
  "confused": 1083,
  "curious": 1084,
  "nashville": 1085,
  "kick": 1086,
  "till": 1087,
  "deep": 1088,
  "thought": 1089,
  "double": 1090,
  "pen": 1091,
  "could": 1092,
  "imagine": 1093,
  "hog": 1094,
  "water": 1095,
  "##on": 1096,
  "bowl": 1097,
  "breakfast": 1098,
  "move": 1099,
  "sight": 1100,
  "based": 1101,
  "movement": 1102,
  "sharing": 1103,
  "ck": 1104,
  "sleep": 1105,
  "haven": 1106,
  "been": 1107,
  "sleeping": 1108,
  "brother": 1109,
  "##h": 1110,
  "language": 1111,
  "hour": 1112,
  "flight": 1113,
  "arrived": 1114,
  "clean": 1115,
  "##ddle": 1116,
  "blow": 1117,
  "wonder": 1118,
  "boat": 1119,
  "travel": 1120,
  "lemon": 1121,
  "rosemary": 1122,
  "pound": 1123,
  "keep": 1124,
  "calm": 1125,
  "london": 1126,
  "zebra": 1127,
  "sharp": 1128,
  "mug": 1129,
  "gifts": 1130,
  "step": 1131,
  "1": 1132,
  "##den": 1133,
  "acting": 1134,
  "an": 1135,
  "country": 1136,
  "pi": 1137,
  "##mp": 1138,
  "friends": 1139,
  "engagement": 1140,
  "square": 1141,
  "cried": 1142,
  "worry": 1143,
  "##iest": 1144,
  "handsome": 1145,
  "forward": 1146,
  "spending": 1147,
  "01": 1148,
  "14": 1149,
  "dance": 1150,
  "feet": 1151,
  "follow": 1152,
  "remember": 1153,
  "coke": 1154,
  "share": 1155,
  "##aco": 1156,
  "##ke": 1157,
  "books": 1158,
  "kept": 1159,
  "em": 1160,
  "headed": 1161,
  "church": 1162,
  "##ling": 1163,
  "mommy": 1164,
  "##ox": 1165,
  "care": 1166,
  "l": 1167,
  "##mbo": 1168,
  "roof": 1169,
  "##yo": 1170,
  "##rk": 1171,
  "lazy": 1172,
  "##ddled": 1173,
  "bed": 1174,
  "mu": 1175,
  "##ffin": 1176,
  "while": 1177,
  "works": 1178,
  "them": 1179,
  "neighbor": 1180,
  "child": 1181,
  "garden": 1182,
  "boutique": 1183,
  "also": 1184,
  "open": 1185,
  "race": 1186,
  "twin": 1187,
  "stars": 1188,
  "spinning": 1189,
  "mt": 1190,
  "hood": 1191,
  "beautifully": 1192,
  "designed": 1193,
  "soap": 1194,
  "packaging": 1195,
  "recipe": 1196,
  "pillow": 1197,
  "creating": 1198,
  "mountain": 1199,
  "painting": 1200,
  "using": 1201,
  "coffee": 1202,
  "whistle": 1203,
  "familiar": 1204,
  "pee": 1205,
  "##ps": 1206,
  "inside": 1207,
  "phil": 1208,
  "##ly": 1209,
  "partners": 1210,
  "crime": 1211,
  "pepper": 1212,
  "bra": 1213,
  "##ised": 1214,
  "candi": 1215,
  "walnut": 1216,
  "##cky": 1217,
  "outfit": 1218,
  "united": 1219,
  "harmony": 1220,
  "eyes": 1221,
  "bree": 1222,
  "##zy": 1223,
  "cloudy": 1224,
  "clown": 1225,
  "photographer": 1226,
  "mcdonald": 1227,
  "windy": 1228,
  "nan": 1229,
  "cut": 1230,
  "sneak": 1231,
  "peek": 1232,
  "hip": 1233,
  "##po": 1234,
  "deck": 1235,
  "flee": 1236,
  "##ce": 1237,
  "sweatshirt": 1238,
  "loving": 1239,
  "punch": 1240,
  "wanna": 1241,
  "maggie": 1242,
  "sl": 1243,
  "##ays": 1244,
  "holding": 1245,
  "fairy": 1246,
  "##tale": 1247,
  "tuesday": 1248,
  "favors": 1249,
  "bring": 1250,
  "peace": 1251,
  "##mas": 1252,
  "fields": 1253,
  "perfect": 1254,
  "winters": 1255,
  "embroidered": 1256,
  "owl": 1257,
  "##sta": 1258,
  "##chio": 1259,
  "twist": 1260,
  "girls": 1261,
  "##shi": 1262,
  "arrivals": 1263,
  "hurry": 1264,
  "brad": 1265,
  "wrap": 1266,
  "towards": 1267,
  "fast": 1268,
  "highlights": 1269,
  "arrow": 1270,
  "##sp": 1271,
  "##oon": 1272,
  "##z": 1273,
  "cash": 1274,
  "georges": 1275,
  "##the": 1276,
  "##go": 1277,
  "##ball": 1278,
  "cage": 1279,
  "bells": 1280,
  "before": 1281,
  "pretty": 1282,
  "oaks": 1283,
  "few": 1284,
  "shirts": 1285,
  "boot": 1286,
  "catching": 1287,
  "fire": 1288,
  "##flies": 1289,
  "sky": 1290,
  "lake": 1291,
  "##hoe": 1292,
  "text": 1293,
  "called": 1294,
  "visited": 1295,
  "waited": 1296,
  "cakes": 1297,
  "disneyland": 1298,
  "joy": 1299,
  "mall": 1300,
  "ride": 1301,
  "monkeys": 1302,
  "casual": 1303,
  "refreshing": 1304,
  "juice": 1305,
  "sitting": 1306,
  "scene": 1307,
  "##front": 1308,
  "drinks": 1309,
  "japan": 1310,
  "drinking": 1311,
  "bite": 1312,
  "o": 1313,
  "##at": 1314,
  "##me": 1315,
  "topped": 1316,
  "banana": 1317,
  "strawberry": 1318,
  "failed": 1319,
  "attempt": 1320,
  "hiking": 1321,
  "ga": 1322,
  "strike": 1323,
  "again": 1324,
  "pumpkin": 1325,
  "pie": 1326,
  "pest": 1327,
  "pizza": 1328,
  "olive": 1329,
  "ar": 1330,
  "##ug": 1331,
  "##ula": 1332,
  "pass": 1333,
  "##er": 1334,
  "##by": 1335,
  "plane": 1336,
  "earth": 1337,
  "underneath": 1338,
  "non": 1339,
  "which": 1340,
  "vegetable": 1341,
  "seed": 1342,
  "grow": 1343,
  "##you": 1344,
  "##row": 1345,
  "whole": 1346,
  "lobster": 1347,
  "platt": 1348,
  "episode": 1349,
  "tho": 1350,
  "tee": 1351,
  "fall": 1352,
  "eating": 1353,
  "curry": 1354,
  "meal": 1355,
  "lily": 1356,
  "pu": 1357,
  "should": 1358,
  "celebrate": 1359,
  "comment": 1360,
  "suggestions": 1361,
  "nanny": 1362,
  "seen": 1363,
  "cases": 1364,
  "once": 1365,
  "ends": 1366,
  "beers": 1367,
  "plan": 1368,
  "ring": 1369,
  "shiny": 1370,
  "bow": 1371,
  "conquer": 1372,
  "woke": 1373,
  "babe": 1374,
  "cr": 1375,
  "##mc": 1376,
  "team": 1377,
  "members": 1378,
  "weekends": 1379,
  "end": 1380,
  "totally": 1381,
  "happening": 1382,
  "##inn": 1383,
  "wave": 1384,
  "nails": 1385,
  "everyday": 1386,
  "worth": 1387,
  "remembering": 1388,
  "dried": 1389,
  "didn": 1390,
  "visible": 1391,
  "reflect": 1392,
  "##or": 1393,
  "active": 1394,
  "##ki": 1395,
  "##ds": 1396,
  "safety": 1397,
  "afraid": 1398,
  "matter": 1399,
  "min": 1400,
  "dust": 1401,
  "shi": 1402,
  "##mmer": 1403,
  "ic": 1404,
  "sugar": 1405,
  "po": 1406,
  "##oping": 1407,
  "tourist": 1408,
  "melbourne": 1409,
  "leo": 1410,
  "cardinal": 1411,
  "4": 1412,
  "dozen": 1413,
  "##py": 1414,
  "##kr": 1415,
  "##eme": 1416,
  "stamp": 1417,
  "seal": 1418,
  "mid": 1419,
  "ca": 1420,
  "##cao": 1421,
  "almond": 1422,
  "buck": 1423,
  "##w": 1424,
  "##hea": 1425,
  "cookies": 1426,
  "ninja": 1427,
  "gotten": 1428,
  "reminder": 1429,
  "waves": 1430,
  "circles": 1431,
  "bam": 1432,
  "yard": 1433,
  "smile": 1434,
  "fellow": 1435,
  "simple": 1436,
  "dessert": 1437,
  "marks": 1438,
  "spot": 1439,
  "window": 1440,
  "display": 1441,
  "randy": 1442,
  "purchased": 1443,
  "slowly": 1444,
  "dev": 1445,
  "lesson": 1446,
  "bae": 1447,
  "attitude": 1448,
  "jax": 1449,
  "couldn": 1450,
  "begin": 1451,
  "site": 1452,
  "clients": 1453,
  "##oh": 1454,
  "la": 1455,
  "embrace": 1456,
  "glorious": 1457,
  "mess": 1458,
  "until": 1459,
  "goodnight": 1460,
  "bless": 1461,
  "voted": 1462,
  "means": 1463,
  "stroll": 1464,
  "momma": 1465,
  "homestead": 1466,
  "relaxing": 1467,
  "rainbow": 1468,
  "ole": 1469,
  "john": 1470,
  "bread": 1471,
  "disco": 1472,
  "hits": 1473,
  "district": 1474,
  "camera": 1475,
  "meets": 1476,
  "change": 1477,
  "create": 1478,
  "opportunity": 1479,
  "list": 1480,
  "gets": 1481,
  "##cum": 1482,
  "##ber": 1483,
  "benefits": 1484,
  "college": 1485,
  "thing": 1486,
  "quite": 1487,
  "sexy": 1488,
  "milk": 1489,
  "##ti": 1490,
  "##ep": 1491,
  "##ye": 1492,
  "grove": 1493,
  "filled": 1494,
  "##ob": 1495,
  "cape": 1496,
  "flat": 1497,
  "lighthouse": 1498,
  "both": 1499,
  "sunny": 1500,
  "graduated": 1501,
  "sticking": 1502,
  "che": 1503,
  "##dda": 1504,
  "##r": 1505,
  "buffalo": 1506,
  "dropped": 1507,
  "studio": 1508,
  "ages": 1509,
  "april": 1510,
  "treasure": 1511,
  "chest": 1512,
  "month": 1513,
  "read": 1514,
  "needed": 1515,
  "statement": 1516,
  "wasn": 1517,
  "hating": 1518,
  "random": 1519,
  "discovery": 1520,
  "antique": 1521,
  "heights": 1522,
  "houston": 1523,
  "hot": 1524,
  "parked": 1525,
  "car": 1526,
  "value": 1527,
  "doesn": 1528,
  "yourself": 1529,
  "finding": 1530,
  "stories": 1531,
  "children": 1532,
  "written": 1533,
  "rehearsal": 1534,
  "invitations": 1535,
  "keeping": 1536,
  "pig": 1537,
  "##gy": 1538,
  "slip": 1539,
  "##pers": 1540,
  "frozen": 1541,
  "ama": 1542,
  "drive": 1543,
  "san": 1544,
  "##cle": 1545,
  "##ment": 1546,
  "##e": 1547,
  "sunset": 1548,
  "textures": 1549,
  "##nies": 1550,
  "rain": 1551,
  "stopped": 1552,
  "available": 1553,
  "sizes": 1554,
  "block": 1555,
  "ll": 1556,
  "##ama": 1557,
  "leg": 1558,
  "##ad": 1559,
  "##life": 1560,
  "giving": 1561,
  "parade": 1562,
  "liz": 1563,
  "fried": 1564,
  "##les": 1565,
  "im": 1566,
  "kiss": 1567,
  "proof": 1568,
  "lip": 1569,
  "stain": 1570,
  "storm": 1571,
  "lovely": 1572,
  "surprise": 1573,
  "england": 1574,
  "taught": 1575,
  "classic": 1576,
  "amazing": 1577,
  "fabulous": 1578,
  "pot": 1579,
  "think": 1580,
  "jacket": 1581,
  "thor": 1582,
  "sketch": 1583,
  "##ver": 1584,
  "commission": 1585,
  "30": 1586,
  "cost": 1587,
  "did": 1588,
  "cam": 1589,
  "original": 1590,
  "missing": 1591,
  "sas": 1592,
  "lady": 1593,
  "glass": 1594,
  "set": 1595,
  "sales": 1596,
  "k": 1597,
  "flash": 1598,
  "missed": 1599,
  "##beau": 1600,
  "##ful": 1601,
  "##her": 1602,
  "bottom": 1603,
  "kicks": 1604,
  "##tar": 1605,
  "sip": 1606,
  "##jit": 1607,
  "creation": 1608,
  "perfection": 1609,
  "reese": 1610,
  "##wall": 1611,
  "dr": 1612,
  "##iz": 1613,
  "##zle": 1614,
  "enough": 1615,
  "buying": 1616,
  "each": 1617,
  "##ple": 1618,
  "thunder": 1619,
  "lightning": 1620,
  "came": 1621,
  "##da": 1622,
  "##ught": 1623,
  "painted": 1624,
  "buddy": 1625,
  "kentucky": 1626,
  "derby": 1627,
  "seattle": 1628,
  "opening": 1629,
  "toes": 1630,
  "filter": 1631,
  "##fr": 1632,
  "##ien": 1633,
  "mentioned": 1634,
  "cook": 1635,
  "freshly": 1636,
  "shape": 1637,
  "##pm": 1638,
  "happiness": 1639,
  "isn": 1640,
  "experience": 1641,
  "wong": 1642,
  "seafood": 1643,
  "dining": 1644,
  "say": 1645,
  "wow": 1646,
  "already": 1647,
  "ft": 1648,
  "##k": 1649,
  "loaded": 1650,
  "heading": 1651,
  "pop": 1652,
  "shop": 1653,
  "festival": 1654,
  "humble": 1655,
  "03": 1656,
  "netflix": 1657,
  "hello": 1658,
  "lots": 1659,
  "craft": 1660,
  "busy": 1661,
  "normal": 1662,
  "score": 1663,
  "free": 1664,
  "spice": 1665,
  "##tte": 1666,
  "starbucks": 1667,
  "bride": 1668,
  "tea": 1669,
  "exercises": 1670,
  "effective": 1671,
  "ou": 1672,
  "between": 1673,
  "angles": 1674,
  "audrey": 1675,
  "makes": 1676,
  "mean": 1677,
  "chip": 1678,
  "cookie": 1679,
  "halloween": 1680,
  "either": 1681,
  "write": 1682,
  "reading": 1683,
  "writing": 1684,
  "korean": 1685,
  "students": 1686,
  "spring": 1687,
  "smells": 1688,
  "pr": 1689,
  "steam": 1690,
  "ahead": 1691,
  "fitness": 1692,
  "cope": 1693,
  "creamy": 1694,
  "garlic": 1695,
  "dressing": 1696,
  "##cut": 1697,
  "pear": 1698,
  "tree": 1699,
  "flowers": 1700,
  "lil": 1701,
  "grey": 1702,
  "biceps": 1703,
  "abs": 1704,
  "lifting": 1705,
  "officially": 1706,
  "become": 1707,
  "addiction": 1708,
  "angle": 1709,
  "fighting": 1710,
  "cv": 1711,
  "deal": 1712,
  "posted": 1713,
  "sit": 1714,
  "future": 1715,
  "learning": 1716,
  "teachers": 1717,
  "poster": 1718,
  "powerful": 1719,
  "human": 1720,
  "crystal": 1721,
  "et": 1722,
  "airport": 1723,
  "sunlight": 1724,
  "moonlight": 1725,
  "homes": 1726,
  "##wee": 1727,
  "##ome": 1728,
  "worse": 1729,
  "broken": 1730,
  "chan": 1731,
  "##del": 1732,
  "##ier": 1733,
  "anti": 1734,
  "##quin": 1735,
  "winston": 1736,
  "wants": 1737,
  "hike": 1738,
  "degree": 1739,
  "las": 1740,
  "##ag": 1741,
  "##na": 1742,
  "fans": 1743,
  "cause": 1744,
  "contact": 1745,
  "record": 1746,
  "##ft": 1747,
  "##pu": 1748,
  "##nk": 1749,
  "smoked": 1750,
  "##pr": 1751,
  "##ika": 1752,
  "til": 1753,
  "##ia": 1754,
  "tough": 1755,
  "##est": 1756,
  "job": 1757,
  "legal": 1758,
  "##genic": 1759,
  "baked": 1760,
  "actually": 1761,
  "really": 1762,
  "completely": 1763,
  "different": 1764,
  "wrong": 1765,
  "pup": 1766,
  "##pies": 1767,
  "beard": 1768,
  "ink": 1769,
  "studies": 1770,
  "lou": 1771,
  "##nging": 1772,
  "especially": 1773,
  "industry": 1774,
  "tap": 1775,
  "mexican": 1776,
  "bird": 1777,
  "catch": 1778,
  "stuffed": 1779,
  "awaiting": 1780,
  "nova": 1781,
  "nature": 1782,
  "oakland": 1783,
  "dinosaur": 1784,
  "sing": 1785,
  "forever": 1786,
  "hockey": 1787,
  "starts": 1788,
  "wheat": 1789,
  "harvest": 1790,
  "suburban": 1791,
  "##gra": 1792,
  "##ine": 1793,
  "##x": 1794,
  "##per": 1795,
  "##ime": 1796,
  "recent": 1797,
  "trip": 1798,
  "gala": 1799,
  "##pa": 1800,
  "##gos": 1801,
  "daughters": 1802,
  "bonus": 1803,
  "braid": 1804,
  "into": 1805,
  "surprises": 1806,
  "balls": 1807,
  "invention": 1808,
  "ch": 1809,
  "potato": 1810,
  "lives": 1811,
  "glasses": 1812,
  "##no": 1813,
  "equipment": 1814,
  "shoot": 1815,
  "complete": 1816,
  "pro": 1817,
  "games": 1818,
  "dogs": 1819,
  "liked": 1820,
  "shy": 1821,
  "und": 1822,
  "adding": 1823,
  "touches": 1824,
  "navy": 1825,
  "sums": 1826,
  "mono": 1827,
  "##romatic": 1828,
  "okay": 1829,
  "jazz": 1830,
  "gig": 1831,
  "state": 1832,
  "##ton": 1833,
  "kidd": 1834,
  "plate": 1835,
  "brody": 1836,
  "wears": 1837,
  "sleeve": 1838,
  "##him": 1839,
  "air": 1840,
  "german": 1841,
  "decor": 1842,
  "##ating": 1843,
  "ideas": 1844,
  "calling": 1845,
  "mar": 1846,
  "##zi": 1847,
  "##pan": 1848,
  "media": 1849,
  "silent": 1850,
  "topic": 1851,
  "am": 1852,
  "draw": 1853,
  "florida": 1854,
  "process": 1855,
  "h": 1856,
  "dull": 1857,
  "que": 1858,
  "##sa": 1859,
  "##di": 1860,
  "##lla": 1861,
  "glow": 1862,
  "shit": 1863,
  "forgot": 1864,
  "##balls": 1865,
  "kate": 1866,
  "bush": 1867,
  "vinyl": 1868,
  "carving": 1869,
  "pacific": 1870,
  "boo": 1871,
  "##ze": 1872,
  "were": 1873,
  "talking": 1874,
  "di": 1875,
  "bis": 1876,
  "money": 1877,
  "saying": 1878,
  "2014": 1879,
  "chatting": 1880,
  "butterfly": 1881,
  "##up": 1882,
  "spirit": 1883,
  "en": 1884,
  "##ust": 1885,
  "safe": 1886,
  "save": 1887,
  "honey": 1888,
  "mustard": 1889,
  "fm": 1890,
  "##hot": 1891,
  "##oa": 1892,
  "##pin": 1893,
  "check": 1894,
  "quilt": 1895,
  "cecil": 1896,
  "stump": 1897,
  "##ius": 1898,
  "band": 1899,
  "least": 1900,
  "personal": 1901,
  "hell": 1902,
  "describe": 1903,
  "buddha": 1904,
  "fan": 1905,
  "berries": 1906,
  "prefer": 1907,
  "match": 1908,
  "##p": 1909,
  "play": 1910,
  "police": 1911,
  "officer": 1912,
  "yesterday": 1913,
  "bull": 1914,
  "three": 1915,
  "monsters": 1916,
  "##ddling": 1917,
  "else": 1918,
  "pin": 1919,
  "##ter": 1920,
  "cactus": 1921,
  "parents": 1922,
  "finish": 1923,
  "packing": 1924,
  "moon": 1925,
  "session": 1926,
  "aw": 1927,
  "sad": 1928,
  "anymore": 1929,
  "matching": 1930,
  "sisters": 1931,
  "dead": 1932,
  "bubble": 1933,
  "blowing": 1934,
  "celebrating": 1935,
  "husband": 1936,
  "dog": 1937,
  "therapy": 1938,
  "desk": 1939,
  "sign": 1940,
  "ps": 1941,
  "##st": 1942,
  "dogg": 1943,
  "order": 1944,
  "e": 1945,
  "changing": 1946,
  "interior": 1947,
  "lights": 1948,
  "imp": 1949,
  "##ala": 1950,
  "hum": 1951,
  "##mm": 1952,
  "billion": 1953,
  "flying": 1954,
  "cable": 1955,
  "tie": 1956,
  "dye": 1957,
  "sensible": 1958,
  "lift": 1959,
  "sneakers": 1960,
  "shine": 1961,
  "cater": 1962,
  "##pi": 1963,
  "##llar": 1964,
  "flower": 1965,
  "holidays": 1966,
  "salsa": 1967,
  "##es": 1968,
  "##ca": 1969,
  "ci": 1970,
  "##lan": 1971,
  "##tro": 1972,
  "though": 1973,
  "says": 1974,
  "cave": 1975,
  "cap": 1976,
  "##cci": 1977,
  "presents": 1978,
  "spoiled": 1979,
  "##christ": 1980,
  "ins": 1981,
  "##tore": 1982,
  "together": 1983,
  "plain": 1984,
  "suck": 1985,
  "sidewalk": 1986,
  "chalk": 1987,
  "cooking": 1988,
  "purchase": 1989,
  "any": 1990,
  "products": 1991,
  "siblings": 1992,
  "cousins": 1993,
  "river": 1994,
  "chat": 1995,
  "boats": 1996,
  "mountains": 1997,
  "baseball": 1998,
  "sea": 1999,
  "caves": 2000,
  "sick": 2001,
  "magic": 2002,
  "classes": 2003,
  "productive": 2004,
  "brought": 2005,
  "present": 2006,
  "paper": 2007,
  "choices": 2008,
  "conference": 2009,
  "ipad": 2010,
  "tunes": 2011,
  "grim": 2012,
  "rid": 2013,
  "sock": 2014,
  "tan": 2015,
  "sun": 2016,
  "##dae": 2017,
  "cabbage": 2018,
  "rolls": 2019,
  "castle": 2020,
  "ruins": 2021,
  "##bury": 2022,
  "##park": 2023,
  "imagination": 2024,
  "##mic": 2025,
  "##hi": 2026,
  "##gan": 2027,
  "##rr": 2028,
  "ace": 2029,
  "ventura": 2030,
  "birds": 2031,
  "panama": 2032,
  "cooked": 2033,
  "##hey": 2034,
  "deserves": 2035,
  "inter": 2036,
  "featuring": 2037,
  "ain": 2038,
  "word": 2039,
  "fluffy": 2040,
  "latest": 2041,
  "trash": 2042,
  "punk": 2043,
  "possible": 2044,
  "knock": 2045,
  "forest": 2046,
  "horror": 2047,
  "bald": 2048,
  "feeling": 2049,
  "midsummer": 2050,
  "herb": 2051,
  "##ois": 2052,
  "##sant": 2053,
  "hung": 2054,
  "outfits": 2055,
  "twins": 2056,
  "signature": 2057,
  "##aw": 2058,
  "baking": 2059,
  "super": 2060,
  "copper": 2061,
  "babies": 2062,
  "learn": 2063,
  "chilling": 2064,
  "greenhouse": 2065,
  "##bb": 2066,
  "prep": 2067,
  "stir": 2068,
  "colorful": 2069,
  "sparkle": 2070,
  "##girl": 2071,
  "bu": 2072,
  "cabaret": 2073,
  "fra": 2074,
  "practicing": 2075,
  "moves": 2076,
  "hit": 2077,
  "men": 2078,
  "women": 2079,
  "lost": 2080,
  "ago": 2081,
  "ten": 2082,
  "wool": 2083,
  "mammoth": 2084,
  "happen": 2085,
  "##iri": 2086,
  "##sh": 2087,
  "##rose": 2088,
  "##ph": 2089,
  "##oto": 2090,
  "##graphy": 2091,
  "id": 2092,
  "lonely": 2093,
  "shelter": 2094,
  "worm": 2095,
  "won": 2096,
  "said": 2097,
  "knees": 2098,
  "blinds": 2099,
  "short": 2100,
  "sounds": 2101,
  "torch": 2102,
  "rare": 2103,
  "##lam": 2104,
  "duck": 2105,
  "pursuit": 2106,
  "past": 2107,
  "toll": 2108,
  "cameras": 2109,
  "##ass": 2110,
  "exploring": 2111,
  "stone": 2112,
  "stacey": 2113,
  "french": 2114,
  "onion": 2115,
  "60": 2116,
  "inspired": 2117,
  "turbo": 2118,
  "vet": 2119,
  "high": 2120,
  "trail": 2121,
  "explore": 2122,
  "##bert": 2123,
  "creek": 2124,
  "80": 2125,
  "##in": 2126,
  "sweat": 2127,
  "round": 2128,
  "telling": 2129,
  "walking": 2130,
  "slow": 2131,
  "floor": 2132,
  "sample": 2133,
  "fair": 2134,
  "laughter": 2135,
  "body": 2136,
  "##ris": 2137,
  "employee": 2138,
  "##lin": 2139,
  "##bo": 2140,
  "##unt": 2141,
  "##ry": 2142,
  "##far": 2143,
  "##ms": 2144,
  "spots": 2145,
  "77": 2146,
  "##3": 2147,
  "41": 2148,
  "97": 2149,
  "##47": 2150,
  "app": 2151,
  "meanwhile": 2152,
  "somehow": 2153,
  "4th": 2154,
  "july": 2155,
  "buy": 2156,
  "umbrella": 2157,
  "press": 2158,
  "pause": 2159,
  "bea": 2160,
  "##gle": 2161,
  "thick": 2162,
  "solid": 2163,
  "doors": 2164,
  "tired": 2165,
  "impossible": 2166,
  "spikes": 2167,
  "fine": 2168,
  "basement": 2169,
  "bachelor": 2170,
  "weddings": 2171,
  "##good": 2172,
  "goodbye": 2173,
  "istanbul": 2174,
  "##cho": 2175,
  "##cola": 2176,
  "son": 2177,
  "choir": 2178,
  "bananas": 2179,
  "loved": 2180,
  "wall": 2181,
  "truth": 2182,
  "choke": 2183,
  "weird": 2184,
  "santa": 2185,
  "cho": 2186,
  "##ban": 2187,
  "shelf": 2188,
  "stud": 2189,
  "se": 2190,
  "52": 2191,
  "drops": 2192,
  "pool": 2193,
  "creep": 2194,
  "custom": 2195,
  "printed": 2196,
  "delivery": 2197,
  "floral": 2198,
  "flowing": 2199,
  "gown": 2200,
  "footprints": 2201,
  "paste": 2202,
  "##ld": 2203,
  "##ress": 2204,
  "##par": 2205,
  "##ty": 2206,
  "twenty": 2207,
  "six": 2208,
  "sour": 2209,
  "hoop": 2210,
  "idea": 2211,
  "outdoor": 2212,
  "whoever": 2213,
  "delivered": 2214,
  "driver": 2215,
  "taste": 2216,
  "urban": 2217,
  "middle": 2218,
  "street": 2219,
  "lisbon": 2220,
  "father": 2221,
  "wood": 2222,
  "salmon": 2223,
  "soft": 2224,
  "boiled": 2225,
  "landscape": 2226,
  "channel": 2227,
  "##ade": 2228,
  "sang": 2229,
  "##ria": 2230,
  "gu": 2231,
  "##aca": 2232,
  "use": 2233,
  "stones": 2234,
  "whisper": 2235,
  "cafe": 2236,
  "touch": 2237,
  "brothers": 2238,
  "bat": 2239,
  "##ik": 2240,
  "dancer": 2241,
  "mother": 2242,
  "sometimes": 2243,
  "gardening": 2244,
  "barber": 2245,
  "snap": 2246,
  "##cha": 2247,
  "dam": 2248,
  "awkward": 2249,
  "empire": 2250,
  "##chi": 2251,
  "reminds": 2252,
  "costume": 2253,
  "gloss": 2254,
  "ii": 2255,
  "minimal": 2256,
  "structure": 2257,
  "jerry": 2258,
  "jeff": 2259,
  "walker": 2260,
  "bear": 2261,
  "guest": 2262,
  "bathroom": 2263,
  "same": 2264,
  "layout": 2265,
  "materials": 2266,
  "jump": 2267,
  "hats": 2268,
  "messing": 2269,
  "laptop": 2270,
  "toast": 2271,
  "sp": 2272,
  "##rou": 2273,
  "##ts": 2274,
  "##uven": 2275,
  "##ir": 2276,
  "fen": 2277,
  "##way": 2278,
  "foods": 2279,
  "strong": 2280,
  "greatest": 2281,
  "apparently": 2282,
  "harder": 2283,
  "appreciation": 2284,
  "ornaments": 2285,
  "history": 2286,
  "chasing": 2287,
  "waterfalls": 2288,
  "north": 2289,
  "polar": 2290,
  "bears": 2291,
  "able": 2292,
  "dun": 2293,
  "shoes": 2294,
  "hub": 2295,
  "wherever": 2296,
  "champions": 2297,
  "bigger": 2298,
  "snack": 2299,
  "bright": 2300,
  "##ening": 2301,
  "sprung": 2302,
  "bloom": 2303,
  "story": 2304,
  "force": 2305,
  "awake": 2306,
  "bf": 2307,
  "##f": 2308,
  "goals": 2309,
  "chick": 2310,
  "yo": 2311,
  "chu": 2312,
  "brew": 2313,
  "damn": 2314,
  "dragon": 2315,
  "maine": 2316,
  "flashback": 2317,
  "##ju": 2318,
  "##ven": 2319,
  "mind": 2320,
  "soul": 2321,
  "cheap": 2322,
  "bo": 2323,
  "highlight": 2324,
  "ike": 2325,
  "chosen": 2326,
  "##cos": 2327,
  "gone": 2328,
  "##ever": 2329,
  "madness": 2330,
  "batman": 2331,
  "price": 2332,
  "availability": 2333,
  "looked": 2334,
  "tucked": 2335,
  "fort": 2336,
  "content": 2337,
  "rings": 2338,
  "turquoise": 2339,
  "goddamn": 2340,
  "farmer": 2341,
  "##lei": 2342,
  "##dos": 2343,
  "##cope": 2344,
  "feed": 2345,
  "fold": 2346,
  "scrambled": 2347,
  "rye": 2348,
  "inner": 2349,
  "tattoo": 2350,
  "fake": 2351,
  "lashes": 2352,
  "shan": 2353,
  "excellent": 2354,
  "smiles": 2355,
  "worship": 2356,
  "reggie": 2357,
  "raft": 2358,
  "1000": 2359,
  "rec": 2360,
  "##har": 2361,
  "##ge": 2362,
  "lipstick": 2363,
  "##tin": 2364,
  "kinda": 2365,
  "##ctic": 2366,
  "##lip": 2367,
  "miami": 2368,
  "fl": 2369,
  "##mb": 2370,
  "##lr": 2371,
  "worthy": 2372,
  "feeding": 2373,
  "calves": 2374,
  "maya": 2375,
  "holiday": 2376,
  "brewers": 2377,
  "grain": 2378,
  "sterling": 2379,
  "bye": 2380,
  "makeup": 2381,
  "07": 2382,
  "##45": 2383,
  "##5": 2384,
  "express": 2385,
  "longer": 2386,
  "workers": 2387,
  "fit": 2388,
  "##break": 2389,
  "##with": 2390,
  "##lov": 2391,
  "##eb": 2392,
  "##yd": 2393,
  "##ani": 2394,
  "##elle": 2395,
  "##vo": 2396,
  "##ice": 2397,
  "dyed": 2398,
  "reflections": 2399,
  "flooded": 2400,
  "abandoned": 2401,
  "medical": 2402,
  "##ware": 2403,
  "style": 2404,
  "personality": 2405,
  "justice": 2406,
  "blessing": 2407,
  "convinced": 2408,
  "switzerland": 2409,
  "inspiration": 2410,
  "creations": 2411,
  "laying": 2412,
  "sniff": 2413,
  "ping": 2414,
  "rock": 2415,
  "climb": 2416,
  "whale": 2417,
  "cutting": 2418,
  "ants": 2419,
  "including": 2420,
  "##ab": 2421,
  "begins": 2422,
  "emotions": 2423,
  "patch": 2424,
  "hire": 2425,
  "##mer": 2426,
  "tomato": 2427,
  "basil": 2428,
  "tun": 2429,
  "##dra": 2430,
  "holds": 2431,
  "hand": 2432,
  "closer": 2433,
  "war": 2434,
  "remnants": 2435,
  "heavy": 2436,
  "boys": 2437,
  "ro": 2438,
  "##scoe": 2439,
  "chrome": 2440,
  "sale": 2441,
  "standing": 2442,
  "beacon": 2443,
  "pt": 2444,
  "brewing": 2445,
  "batch": 2446,
  "soda": 2447,
  "labor": 2448,
  "##os": 2449,
  "stuff": 2450,
  "asked": 2451,
  "caf": 2452,
  "##fe": 2453,
  "##he": 2454,
  "##pe": 2455,
  "##ople": 2456,
  "cannot": 2457,
  "dreams": 2458,
  "mayo": 2459,
  "bun": 2460,
  "bits": 2461,
  "japanese": 2462,
  "13th": 2463,
  "##qui": 2464,
  "##nc": 2465,
  "farm": 2466,
  "facts": 2467,
  "##ist": 2468,
  "mental": 2469,
  "health": 2470,
  "searching": 2471,
  "collection": 2472,
  "roads": 2473,
  "lead": 2474,
  "official": 2475,
  "karate": 2476,
  "rough": 2477,
  "singing": 2478,
  "fox": 2479,
  "seat": 2480,
  "advantage": 2481,
  "growing": 2482,
  "cousin": 2483,
  "concert": 2484,
  "##gram": 2485,
  "sha": 2486,
  "##ving": 2487,
  "incredible": 2488,
  "international": 2489,
  "##wo": 2490,
  "##men": 2491,
  "##sd": 2492,
  "purple": 2493,
  "chains": 2494,
  "across": 2495,
  "fortune": 2496,
  "grocery": 2497,
  "fly": 2498,
  "beat": 2499,
  "join": 2500,
  "va": 2501,
  "##ife": 2502,
  "judging": 2503,
  "##cat": 2504,
  "bc": 2505,
  "wish": 2506,
  "accidentally": 2507,
  "dressed": 2508,
  "professor": 2509,
  "owen": 2510,
  "mad": 2511,
  "achieve": 2512,
  "law": 2513,
  "visiting": 2514,
  "mouse": 2515,
  "camouflage": 2516,
  "plaid": 2517,
  "blaze": 2518,
  "polka": 2519,
  "dot": 2520,
  "spicy": 2521,
  "sausage": 2522,
  "zu": 2523,
  "##cchi": 2524,
  "##ni": 2525,
  "hash": 2526,
  "given": 2527,
  "print": 2528,
  "branding": 2529,
  "barn": 2530,
  "lawn": 2531,
  "##cup": 2532,
  "gel": 2533,
  "camp": 2534,
  "symmetry": 2535,
  "twitter": 2536,
  "insane": 2537,
  "chop": 2538,
  "peppers": 2539,
  "##mmy": 2540,
  "animal": 2541,
  "asleep": 2542,
  "within": 2543,
  "minutes": 2544,
  "grin": 2545,
  "garage": 2546,
  "seeking": 2547,
  "ocean": 2548,
  "na": 2549,
  "bomb": 2550,
  "drunk": 2551,
  "judge": 2552,
  "path": 2553,
  "walked": 2554,
  "journey": 2555,
  "timeless": 2556,
  "age": 2557,
  "disney": 2558,
  "meet": 2559,
  "hazel": 2560,
  "captured": 2561,
  "bridge": 2562,
  "##ther": 2563,
  "ill": 2564,
  "challenge": 2565,
  "gas": 2566,
  "##sed": 2567,
  "behind": 2568,
  "wheel": 2569,
  "fund": 2570,
  "movies": 2571,
  "book": 2572,
  "##ping": 2573,
  "comfortable": 2574,
  "##ev": 2575,
  "##ats": 2576,
  "cinnamon": 2577,
  "ag": 2578,
  "##ave": 2579,
  "wednesday": 2580,
  "suitcase": 2581,
  "theatre": 2582,
  "reminded": 2583,
  "illustration": 2584,
  "props": 2585,
  "struggling": 2586,
  "lately": 2587,
  "talk": 2588,
  "pajamas": 2589,
  "believe": 2590,
  "four": 2591,
  "couple": 2592,
  "om": 2593,
  "tasted": 2594,
  "70s": 2595,
  "cough": 2596,
  "medicine": 2597,
  "hey": 2598,
  "log": 2599,
  "coloring": 2600,
  "credit": 2601,
  "goes": 2602,
  "beginning": 2603,
  "visit": 2604,
  "arms": 2605,
  "##ic": 2606,
  "halo": 2607,
  "##ure": 2608,
  "closing": 2609,
  "blessed": 2610,
  "ugly": 2611,
  "sweater": 2612,
  "turtle": 2613,
  "##neck": 2614,
  "yellow": 2615,
  "addition": 2616,
  "bedroom": 2617,
  "december": 2618,
  "kill": 2619,
  "cleaning": 2620,
  "closet": 2621,
  "toys": 2622,
  "##chan": 2623,
  "mystery": 2624,
  "surrounded": 2625,
  "scratch": 2626,
  "##pack": 2627,
  "##aro": 2628,
  "yeah": 2629,
  "wig": 2630,
  "sessions": 2631,
  "becoming": 2632,
  "request": 2633,
  "ken": 2634,
  "##nel": 2635,
  "solo": 2636,
  "ph": 2637,
  "shared": 2638,
  "blooms": 2639,
  "26": 2640,
  "shift": 2641,
  "36": 2642,
  "rays": 2643,
  "front": 2644,
  "row": 2645,
  "24": 2646,
  "winding": 2647,
  "dodge": 2648,
  "chairs": 2649,
  "ball": 2650,
  "fruit": 2651,
  "flag": 2652,
  "dude": 2653,
  "bug": 2654,
  "credits": 2655,
  "coca": 2656,
  "cola": 2657,
  "youtube": 2658,
  "laugh": 2659,
  "alive": 2660,
  "pearl": 2661,
  "pair": 2662,
  "##uli": 2663,
  "key": 2664,
  "dams": 2665,
  "##bread": 2666,
  "##umble": 2667,
  "tooth": 2668,
  "mates": 2669,
  "compliment": 2670,
  "raised": 2671,
  "ali": 2672,
  "squirrels": 2673,
  "driving": 2674,
  "annual": 2675,
  "meeting": 2676,
  "tall": 2677,
  "##aha": 2678,
  "@": 2679,
  "hal": 2680,
  "##ib": 2681,
  "##ut": 2682,
  "##itte": 2683,
  "##rs": 2684,
  "devil": 2685,
  "ballet": 2686,
  "bitch": 2687,
  "fierce": 2688,
  "kit": 2689,
  "##kat": 2690,
  "fatty": 2691,
  "board": 2692,
  "door": 2693,
  "##ggles": 2694,
  "bold": 2695,
  "patterns": 2696,
  "exactly": 2697,
  "uncomfortable": 2698,
  "struggle": 2699,
  "rolled": 2700,
  "oil": 2701,
  "straw": 2702,
  "##berries": 2703,
  "rogue": 2704,
  "nation": 2705,
  "tent": 2706,
  "ko": 2707,
  "table": 2708,
  "##fire": 2709,
  "medium": 2710,
  "bags": 2711,
  "teacher": 2712,
  "gift": 2713,
  "##so": 2714,
  "##ff": 2715,
  "##mad": 2716,
  "##ison": 2717,
  "##ppy": 2718,
  "snuggled": 2719,
  "dough": 2720,
  "orange": 2721,
  "theme": 2722,
  "beyond": 2723,
  "ran": 2724,
  "backstage": 2725,
  "rpm": 2726,
  "##ain": 2727,
  "##ros": 2728,
  "hear": 2729,
  "##tiv": 2730,
  "china": 2731,
  "knew": 2732,
  "decorations": 2733,
  "40": 2734,
  "00": 2735,
  "pride": 2736,
  "pit": 2737,
  "scrub": 2738,
  "hotel": 2739,
  "spoil": 2740,
  "wing": 2741,
  "difference": 2742,
  "bout": 2743,
  "special": 2744,
  "bar": 2745,
  "adult": 2746,
  "##ra": 2747,
  "##bble": 2748,
  "selling": 2749,
  "##oki": 2750,
  "##dou": 2751,
  "starter": 2752,
  "gracie": 2753,
  "jersey": 2754,
  "mandatory": 2755,
  "doll": 2756,
  "unlocked": 2757,
  "divide": 2758,
  "expo": 2759,
  "carved": 2760,
  "scoop": 2761,
  "james": 2762,
  "giant": 2763,
  "peach": 2764,
  "likes": 2765,
  "hall": 2766,
  "must": 2767,
  "teddy": 2768,
  "half": 2769,
  "windshield": 2770,
  "ended": 2771,
  "wi": 2772,
  "clouds": 2773,
  "decided": 2774,
  "crawl": 2775,
  "nicole": 2776,
  "productivity": 2777,
  "bal": 2778,
  "##con": 2779,
  "domestic": 2780,
  "goddess": 2781,
  "camping": 2782,
  "hank": 2783,
  "hollywood": 2784,
  "kettle": 2785,
  "##bs": 2786,
  "series": 2787,
  "tiny": 2788,
  "pigeon": 2789,
  "companion": 2790,
  "lone": 2791,
  "fisherman": 2792,
  "seats": 2793,
  "rows": 2794,
  "wakes": 2795,
  "detail": 2796,
  "##made": 2797,
  "wooden": 2798,
  "bench": 2799,
  "wander": 2800,
  "botanic": 2801,
  "fe": 2802,
  "##line": 2803,
  "second": 2804,
  "bottle": 2805,
  "cid": 2806,
  "wasted": 2807,
  "taken": 2808,
  "skyscraper": 2809,
  "visits": 2810,
  "bend": 2811,
  "tradition": 2812,
  "jo": 2813,
  "##rie": 2814,
  "supper": 2815,
  "pam": 2816,
  "7": 2817,
  "rainy": 2818,
  "sadness": 2819,
  "crowd": 2820,
  "football": 2821,
  "hands": 2822,
  "pattern": 2823,
  "received": 2824,
  "photograph": 2825,
  "photography": 2826,
  "pray": 2827,
  "##bu": 2828,
  "filling": 2829,
  "lent": 2830,
  "##ils": 2831,
  "bought": 2832,
  "tickets": 2833,
  "november": 2834,
  "steak": 2835,
  "##para": 2836,
  "##gus": 2837,
  "upside": 2838,
  "literally": 2839,
  "breath": 2840,
  "tor": 2841,
  "##till": 2842,
  "##over": 2843,
  "fired": 2844,
  "ensemble": 2845,
  "decision": 2846,
  "shooting": 2847,
  "cloud": 2848,
  "midnight": 2849,
  "##less": 2850,
  "jungle": 2851,
  "li": 2852,
  "kings": 2853,
  "sober": 2854,
  "layered": 2855,
  "legs": 2856,
  "treats": 2857,
  "less": 2858,
  "mosaic": 2859,
  "shows": 2860,
  "push": 2861,
  "american": 2862,
  "del": 2863,
  "fastest": 2864,
  "goodwill": 2865,
  "climbing": 2866,
  "pre": 2867,
  "assembly": 2868,
  "spider": 2869,
  "pub": 2870,
  "jumping": 2871,
  "jelly": 2872,
  "##be": 2873,
  "##ans": 2874,
  "sooner": 2875,
  "thee": 2876,
  "clock": 2877,
  "liquid": 2878,
  "nitrogen": 2879,
  "##sam": 2880,
  "##via": 2881,
  "##light": 2882,
  "stormy": 2883,
  "vote": 2884,
  "cross": 2885,
  "maker": 2886,
  "wee": 2887,
  "furry": 2888,
  "hole": 2889,
  "champ": 2890,
  "winner": 2891,
  "months": 2892,
  "##an": 2893,
  "##ho": 2894,
  "##ur": 2895,
  "times": 2896,
  "ground": 2897,
  "sa": 2898,
  "##ron": 2899,
  "ri": 2900,
  "##tto": 2901,
  "blossoms": 2902,
  "oak": 2903,
  "generous": 2904,
  "amount": 2905,
  "pigs": 2906,
  "tournament": 2907,
  "emma": 2908,
  "whoa": 2909,
  "##icles": 2910,
  "surreal": 2911,
  "counting": 2912,
  "##oni": 2913,
  "lantern": 2914,
  "##zz": 2915,
  "madison": 2916,
  "mood": 2917,
  "straight": 2918,
  "santo": 2919,
  "##rini": 2920,
  "places": 2921,
  "##bby": 2922,
  "contrast": 2923,
  "absolute": 2924,
  "others": 2925,
  "ability": 2926,
  "pasta": 2927,
  "entire": 2928,
  "##nee": 2929,
  "##ded": 2930,
  "melt": 2931,
  "610": 2932,
  "87": 2933,
  "289": 2934,
  "##1": 2935,
  "orders": 2936,
  "##odle": 2937,
  "sense": 2938,
  "##talk": 2939,
  "##cuit": 2940,
  "listening": 2941,
  "caring": 2942,
  "expect": 2943,
  "appreciate": 2944,
  "bored": 2945,
  "af": 2946,
  "owls": 2947,
  "vi": 2948,
  "gabe": 2949,
  "precious": 2950,
  "fifth": 2951,
  "eyelashes": 2952,
  "extensions": 2953,
  "appointment": 2954,
  "201": 2955,
  "42": 2956,
  "1550": 2957,
  "patio": 2958,
  "victoria": 2959,
  "##ster": 2960,
  "carrot": 2961,
  "ladder": 2962,
  "ceremony": 2963,
  "mac": 2964,
  "##por": 2965,
  "skirts": 2966,
  "jess": 2967,
  "spy": 2968,
  "baxter": 2969,
  "stairs": 2970,
  "goo": 2971,
  "per": 2972,
  "##ked": 2973,
  "1st": 2974,
  "september": 2975,
  "farmers": 2976,
  "memo": 2977,
  "##mies": 2978,
  "current": 2979,
  "obsession": 2980,
  "dj": 2981,
  "lovers": 2982,
  "scenes": 2983,
  "grandmother": 2984,
  "chinese": 2985,
  "superior": 2986,
  "wolf": 2987,
  "glory": 2988,
  "star": 2989,
  "nec": 2990,
  "##ess": 2991,
  "##ities": 2992,
  "baptism": 2993,
  "##let": 2994,
  "release": 2995,
  "clutches": 2996,
  "##sma": 2997,
  "##id": 2998,
  "roundabout": 2999,
  "##bot": 3000,
  "##cal": 3001,
  "bliss": 3002,
  "junk": 3003,
  "trunk": 3004,
  "count": 3005,
  "misty": 3006,
  "lions": 3007,
  "vacation": 3008,
  "tail": 3009,
  "##gate": 3010,
  "eagles": 3011,
  "drink": 3012,
  "lock": 3013,
  "screen": 3014,
  "web": 3015,
  "ore": 3016,
  "##sha": 3017,
  "august": 3018,
  "electric": 3019,
  "wire": 3020,
  "hu": 3021,
  "##stle": 3022,
  "adventurer": 3023,
  "##cker": 3024,
  "tam": 3025,
  "##ale": 3026,
  "alone": 3027,
  "produce": 3028,
  "department": 3029,
  "##mes": 3030,
  "fever": 3031,
  "absolutely": 3032,
  "2016": 3033,
  "episodes": 3034,
  "page": 3035,
  "45": 3036,
  "encounters": 3037,
  "nap": 3038,
  "raining": 3039,
  "inspiring": 3040,
  "article": 3041,
  "edition": 3042,
  "issue": 3043,
  "luck": 3044,
  "campus": 3045,
  "fog": 3046,
  "cocoa": 3047,
  "##2": 3048,
  "essential": 3049,
  "shout": 3050,
  "skills": 3051,
  "##mount": 3052,
  "purpose": 3053,
  "##sea": 3054,
  "21": 3055,
  "bars": 3056,
  "swear": 3057,
  "ted": 3058,
  "calls": 3059,
  "coco": 3060,
  "##v": 3061,
  "relax": 3062,
  "triple": 3063,
  "sponge": 3064,
  "ras": 3065,
  "gran": 3066,
  "elf": 3067,
  "ear": 3068,
  "aye": 3069,
  "naked": 3070,
  "reds": 3071,
  "eaten": 3072,
  "curls": 3073,
  "sg": 3074,
  "##fo": 3075,
  "##od": 3076,
  "hat": 3077,
  "pumped": 3078,
  "al": 3079,
  "hawaii": 3080,
  "blonde": 3081,
  "song": 3082,
  "similar": 3083,
  "plus": 3084,
  "suit": 3085,
  "heels": 3086,
  "community": 3087,
  "mural": 3088,
  "chill": 3089,
  "choose": 3090,
  "glimpse": 3091,
  "daily": 3092,
  "routine": 3093,
  "sailing": 3094,
  "fifteen": 3095,
  "es": 3096,
  "##ance": 3097,
  "rotten": 3098,
  "harry": 3099,
  "##due": 3100,
  "nighttime": 3101,
  "destination": 3102,
  "salt": 3103,
  "ut": 3104,
  "perhaps": 3105,
  "central": 3106,
  "stations": 3107,
  "smiling": 3108,
  "spark": 3109,
  "shining": 3110,
  "fuzzy": 3111,
  "knit": 3112,
  "blond": 3113,
  "act": 3114,
  "happily": 3115,
  "exhausted": 3116,
  "theory": 3117,
  "holly": 3118,
  "##cks": 3119,
  "redwood": 3120,
  "paris": 3121,
  "quest": 3122,
  "wishing": 3123,
  "coat": 3124,
  "shall": 3125,
  "jordan": 3126,
  "cars": 3127,
  "multi": 3128,
  "task": 3129,
  "happens": 3130,
  "hudson": 3131,
  "deserve": 3132,
  "hmm": 3133,
  "ate": 3134,
  "##ri": 3135,
  "resist": 3136,
  "cry": 3137,
  "thai": 3138,
  "burr": 3139,
  "##ito": 3140,
  "serious": 3141,
  "town": 3142,
  "monkey": 3143,
  "breeze": 3144,
  "chestnut": 3145,
  "collecting": 3146,
  "ac": 3147,
  "##orn": 3148,
  "caps": 3149,
  "bali": 3150,
  "bikini": 3151,
  "hate": 3152,
  "corner": 3153,
  "equally": 3154,
  "ev": 3155,
  "##oot": 3156,
  "jimmy": 3157,
  "weight": 3158,
  "hairs": 3159,
  "mate": 3160,
  "cc": 3161,
  "mushrooms": 3162,
  "onions": 3163,
  "##sford": 3164,
  "dock": 3165,
  "hold": 3166,
  "shell": 3167,
  "crab": 3168,
  "supposed": 3169,
  "crescent": 3170,
  "harvey": 3171,
  "papa": 3172,
  "homecoming": 3173,
  "##bbly": 3174,
  "##us": 3175,
  "##led": 3176,
  "##mba": 3177,
  "boots": 3178,
  "##can": 3179,
  "heard": 3180,
  "daisy": 3181,
  "##tu": 3182,
  "tis": 3183,
  "jolly": 3184,
  "center": 3185,
  "##ma": 3186,
  "bee": 3187,
  "cop": 3188,
  "tables": 3189,
  "hurricane": 3190,
  "winds": 3191,
  "vent": 3192,
  "sail": 3193,
  "messy": 3194,
  "##cre": 3195,
  "##am": 3196,
  "backyard": 3197,
  "interesting": 3198,
  "dunn": 3199,
  "##ola": 3200,
  "bas": 3201,
  "suns": 3202,
  "scotland": 3203,
  "october": 3204,
  "wallet": 3205,
  "##for": 3206,
  "##ey": 3207,
  "feels": 3208,
  "gangs": 3209,
  "##ta": 3210,
  "chin": 3211,
  "vodka": 3212,
  "st": 3213,
  "##yl": 3214,
  "##ish": 3215,
  "sorry": 3216,
  "ordinary": 3217,
  "handle": 3218,
  "rusty": 3219,
  "truck": 3220,
  "opened": 3221,
  "windows": 3222,
  "report": 3223,
  "friendships": 3224,
  "edge": 3225,
  "unknown": 3226,
  "posting": 3227,
  "deserved": 3228,
  "skating": 3229,
  "nights": 3230,
  "por": 3231,
  "##ridge": 3232,
  "feather": 3233,
  "flock": 3234,
  "swimming": 3235,
  "basketball": 3236,
  "fight": 3237,
  "skin": 3238,
  "folks": 3239,
  "ash": 3240,
  "##fu": 3241,
  "hunting": 3242,
  "dodgers": 3243,
  "wisdom": 3244,
  "seems": 3245,
  "aid": 3246,
  "quote": 3247,
  "stranger": 3248,
  "stronger": 3249,
  "josh": 3250,
  "extra": 3251,
  "fa": 3252,
  "##ves": 3253,
  "thailand": 3254,
  "cows": 3255,
  "field": 3256,
  "##eon": 3257,
  "100": 3258,
  "example": 3259,
  "bath": 3260,
  "obsessed": 3261,
  "lava": 3262,
  "numbers": 3263,
  "minute": 3264,
  "mummy": 3265,
  "sharpe": 3266,
  "##ning": 3267,
  "pencil": 3268,
  "problem": 3269,
  "significant": 3270,
  "worked": 3271,
  "sound": 3272,
  "blast": 3273,
  "##li": 3274,
  "##wear": 3275,
  "eh": 3276,
  "lets": 3277,
  "tags": 3278,
  "kinds": 3279,
  "questions": 3280,
  "kills": 3281,
  "easy": 3282,
  "##sm": 3283,
  "rubber": 3284,
  "blown": 3285,
  "wearing": 3286,
  "local": 3287,
  "brand": 3288,
  "except": 3289,
  "tr": 3290,
  "##uf": 3291,
  "##fles": 3292,
  "tongue": 3293,
  "##out": 3294,
  "ways": 3295,
  "bunch": 3296,
  "via": 3297,
  "silence": 3298,
  "sophisticated": 3299,
  "trooper": 3300,
  "wandering": 3301,
  "streets": 3302,
  "saint": 3303,
  "##ope": 3304,
  "##ops": 3305,
  "wellington": 3306,
  "##sc": 3307,
  "##iu": 3308,
  "gr": 3309,
  "##ere": 3310,
  "planning": 3311,
  "z": 3312,
  "ripped": 3313,
  "jeans": 3314,
  "stand": 3315,
  "##la": 3316,
  "houses": 3317,
  "usually": 3318,
  "chance": 3319,
  "26th": 3320,
  "gorilla": 3321,
  "factory": 3322,
  "photos": 3323,
  "##hop": 3324,
  "drug": 3325,
  "chef": 3326,
  "beans": 3327,
  "##ivity": 3328,
  "operation": 3329,
  "##room": 3330,
  "effect": 3331,
  "poorly": 3332,
  "stupid": 3333,
  "designer": 3334,
  "shoe": 3335,
  "rocky": 3336,
  "hill": 3337,
  "shadow": 3338,
  "enchanted": 3339,
  "skate": 3340,
  "##board": 3341,
  "12": 3342,
  "everybody": 3343,
  "nobody": 3344,
  "lookout": 3345,
  "floating": 3346,
  "victory": 3347,
  "scary": 3348,
  "complain": 3349,
  "cheeks": 3350,
  "worst": 3351,
  "anniversary": 3352,
  "petals": 3353,
  "faced": 3354,
  "conquered": 3355,
  "##rdo": 3356,
  "girlfriend": 3357,
  "dedicated": 3358,
  "##ool": 3359,
  "shipping": 3360,
  "options": 3361,
  "form": 3362,
  "models": 3363,
  "kim": 3364,
  "bouquet": 3365,
  "grade": 3366,
  "usual": 3367,
  "spectacular": 3368,
  "flies": 3369,
  "popping": 3370,
  "bottles": 3371,
  "eve": 3372,
  "##dre": 3373,
  "##ami": 3374,
  "##ng": 3375,
  "blur": 3376,
  "ridiculous": 3377,
  "boardwalk": 3378,
  "cycle": 3379,
  "combination": 3380,
  "##20": 3381,
  "##15": 3382,
  "jean": 3383,
  "mango": 3384,
  "chunk": 3385,
  "finals": 3386,
  "##stor": 3387,
  "moments": 3388,
  "arts": 3389,
  "##las": 3390,
  "range": 3391,
  "online": 3392,
  "activity": 3393,
  "fits": 3394,
  "happier": 3395,
  "company": 3396,
  "smell": 3397,
  "##piece": 3398,
  "painful": 3399,
  "roller": 3400,
  "nephew": 3401,
  "celebration": 3402,
  "ny": 3403,
  "piss": 3404,
  "wings": 3405,
  "shadows": 3406,
  "tiles": 3407,
  "alley": 3408,
  "video": 3409,
  "##games": 3410,
  "sawyer": 3411,
  "spotted": 3412,
  "brick": 3413,
  "megan": 3414,
  "smoking": 3415,
  "cigar": 3416,
  "might": 3417,
  "touched": 3418,
  "holy": 3419,
  "shattered": 3420,
  "points": 3421,
  "amazon": 3422,
  "expensive": 3423,
  "reality": 3424,
  "suddenly": 3425,
  "##tti": 3426,
  "virgin": 3427,
  "stressed": 3428,
  "ye": 3429,
  "dump": 3430,
  "booth": 3431,
  "chefs": 3432,
  "system": 3433,
  "performance": 3434,
  "boston": 3435,
  "gay": 3436,
  "entry": 3437,
  "##uni": 3438,
  "##ted": 3439,
  "##pot": 3440,
  "##pl": 3441,
  "breaking": 3442,
  "cottage": 3443,
  "##hed": 3444,
  "potatoes": 3445,
  "##fat": 3446,
  "sf": 3447,
  "cheers": 3448,
  "lens": 3449,
  "carry": 3450,
  "uncle": 3451,
  "##ppet": 3452,
  "throne": 3453,
  "##ky": 3454,
  "memory": 3455,
  "pour": 3456,
  "edit": 3457,
  "intense": 3458,
  "caribbean": 3459,
  "crashing": 3460,
  "passes": 3461,
  "friendship": 3462,
  "tried": 3463,
  "fat": 3464,
  "ass": 3465,
  "ni": 3466,
  "##gga": 3467,
  "edible": 3468,
  "violet": 3469,
  "classics": 3470,
  "charity": 3471,
  "dreaming": 3472,
  "##bag": 3473,
  "drill": 3474,
  "riding": 3475,
  "buddies": 3476,
  "dinosaurs": 3477,
  "simply": 3478,
  "stunning": 3479,
  "##gi": 3480,
  "customer": 3481,
  "quickly": 3482,
  "gemma": 3483,
  "metal": 3484,
  "curtains": 3485,
  "canada": 3486,
  "thousand": 3487,
  "cracking": 3488,
  "tones": 3489,
  "steamboat": 3490,
  "artist": 3491,
  "aesthetic": 3492,
  "portland": 3493,
  "editing": 3494,
  "weekly": 3495,
  "sketches": 3496,
  "dim": 3497,
  "sum": 3498,
  "delight": 3499,
  "heather": 3500,
  "##op": 3501,
  "booked": 3502,
  "un": 3503,
  "##real": 3504,
  "diet": 3505,
  "##walk": 3506,
  "##ew": 3507,
  "rope": 3508,
  "lee": 3509,
  "oyster": 3510,
  "indeed": 3511,
  "conversations": 3512,
  "understand": 3513,
  "dropping": 3514,
  "rudolph": 3515,
  "snacks": 3516,
  "2000": 3517,
  "sq": 3518,
  "##uis": 3519,
  "##hy": 3520,
  "##all": 3521,
  "##ss": 3522,
  "shots": 3523,
  "film": 3524,
  "freaks": 3525,
  "boarding": 3526,
  "embark": 3527,
  "rob": 3528,
  "ruby": 3529,
  "loser": 3530,
  "decorated": 3531,
  "congratulations": 3532,
  "mr": 3533,
  "mrs": 3534,
  "snakes": 3535,
  "dumb": 3536,
  "##azi": 3537,
  "fruits": 3538,
  "hungry": 3539,
  "obligatory": 3540,
  "snowy": 3541,
  "lifestyle": 3542,
  "embroidery": 3543,
  "meg": 3544,
  "rocking": 3545,
  "bangs": 3546,
  "paws": 3547,
  "favourite": 3548,
  "hr": 3549,
  "drag": 3550,
  "feeder": 3551,
  "staring": 3552,
  "cooks": 3553,
  "thinks": 3554,
  "##lu": 3555,
  "##ten": 3556,
  "soy": 3557,
  "organic": 3558,
  "##umb": 3559,
  "squares": 3560,
  "rev": 3561,
  "##ette": 3562,
  "captain": 3563,
  "america": 3564,
  "avengers": 3565,
  "col": 3566,
  "##lage": 3567,
  "stack": 3568,
  "dishes": 3569,
  "kits": 3570,
  "fringe": 3571,
  "woods": 3572,
  "degrees": 3573,
  "shark": 3574,
  "stuck": 3575,
  "muse": 3576,
  "peacock": 3577,
  "hiding": 3578,
  "fridays": 3579,
  "surely": 3580,
  "pieces": 3581,
  "stretch": 3582,
  "##im": 3583,
  "bud": 3584,
  "led": 3585,
  "lighting": 3586,
  "watch": 3587,
  "bros": 3588,
  "##lings": 3589,
  "doo": 3590,
  "##dle": 3591,
  "kangaroo": 3592,
  "somebody": 3593,
  "tasting": 3594,
  "tom": 3595,
  "believing": 3596,
  "sex": 3597,
  "mascara": 3598,
  "lucy": 3599,
  "goose": 3600,
  "vacuum": 3601,
  "meant": 3602,
  "ce": 3603,
  "##bra": 3604,
  "##tory": 3605,
  "math": 3606,
  "##mos": 3607,
  "behavior": 3608,
  "tram": 3609,
  "seeing": 3610,
  "heroes": 3611,
  "amazingly": 3612,
  "fact": 3613,
  "seasonal": 3614,
  "evil": 3615,
  "te": 3616,
  "anybody": 3617,
  "tornado": 3618,
  "rex": 3619,
  "aunt": 3620,
  "laura": 3621,
  "wayne": 3622,
  "aisle": 3623,
  "rocks": 3624,
  "32": 3625,
  "belong": 3626,
  "reg": 3627,
  "##ram": 3628,
  "piper": 3629,
  "humor": 3630,
  "bloody": 3631,
  "tower": 3632,
  "doubt": 3633,
  "leader": 3634,
  "york": 3635,
  "elm": 3636,
  "monster": 3637,
  "##jack": 3638,
  "##not": 3639,
  "##sor": 3640,
  "##ries": 3641,
  "size": 3642,
  "clever": 3643,
  "knee": 3644,
  "squash": 3645,
  "joining": 3646,
  "cube": 3647,
  "measure": 3648,
  "##lled": 3649,
  "heck": 3650,
  "married": 3651,
  "lunar": 3652,
  "eclipse": 3653,
  "search": 3654,
  "rental": 3655,
  "margarita": 3656,
  "neighbors": 3657,
  "fireworks": 3658,
  "fail": 3659,
  "sol": 3660,
  "ma": 3661,
  "iris": 3662,
  "unfortunate": 3663,
  "##gur": 3664,
  "horses": 3665,
  "pull": 3666,
  "carriage": 3667,
  "finishing": 3668,
  "sat": 3669,
  "architecture": 3670,
  "wondering": 3671,
  "rise": 3672,
  "rockies": 3673,
  "salty": 3674,
  "patience": 3675,
  "##mu": 3676,
  "layers": 3677,
  "utah": 3678,
  "##met": 3679,
  "popcorn": 3680,
  "##pop": 3681,
  "sweets": 3682,
  "droplets": 3683,
  "##oped": 3684,
  "uptown": 3685,
  "charlotte": 3686,
  "workshop": 3687,
  "rooftop": 3688,
  "several": 3689,
  "iceland": 3690,
  "bust": 3691,
  "common": 3692,
  "followers": 3693,
  "following": 3694,
  "rather": 3695,
  "69": 3696,
  "##wheel": 3697,
  "kay": 3698,
  "##tour": 3699,
  "##ell": 3700,
  "falls": 3701,
  "##car": 3702,
  "animals": 3703,
  "speak": 3704,
  "beau": 3705,
  "henry": 3706,
  "george": 3707,
  "passport": 3708,
  "pe": 3709,
  "delicate": 3710,
  "bs": 3711,
  "##kin": 3712,
  "iii": 3713,
  "kicked": 3714,
  "clearly": 3715,
  "grinding": 3716,
  "sharks": 3717,
  "average": 3718,
  "upon": 3719,
  "recommendation": 3720,
  "source": 3721,
  "stage": 3722,
  "version": 3723,
  "ourselves": 3724,
  "##re": 3725,
  "##fine": 3726,
  "sporting": 3727,
  "nu": 3728,
  "spend": 3729,
  "flare": 3730,
  "lifetime": 3731,
  "##die": 3732,
  "puddle": 3733,
  "dear": 3734,
  "overtime": 3735,
  "someday": 3736,
  "dangerous": 3737,
  "plenty": 3738,
  "massive": 3739,
  "chewing": 3740,
  "lux": 3741,
  "kendall": 3742,
  "holes": 3743,
  "res": 3744,
  "##lp": 3745,
  "file": 3746,
  "tuck": 3747,
  "doom": 3748,
  "gloom": 3749,
  "jewelry": 3750,
  "guts": 3751,
  "liquor": 3752,
  "cabinet": 3753,
  "nyc": 3754,
  "nope": 3755,
  "##oche": 3756,
  "racing": 3757,
  "rear": 3758,
  "section": 3759,
  "shaped": 3760,
  "tack": 3761,
  "crew": 3762,
  "hatch": 3763,
  "amp": 3764,
  "##hit": 3765,
  "##ville": 3766,
  "promised": 3767,
  "schedule": 3768,
  "goats": 3769,
  "chickens": 3770,
  "shelves": 3771,
  "brewery": 3772,
  "foot": 3773,
  "question": 3774,
  "answer": 3775,
  "bent": 3776,
  "ellie": 3777,
  "belle": 3778,
  "berry": 3779,
  "tune": 3780,
  "ohio": 3781,
  "northern": 3782,
  "university": 3783,
  "razor": 3784,
  "fest": 3785,
  "##ive": 3786,
  "panda": 3787,
  "korea": 3788,
  "setting": 3789,
  "fiery": 3790,
  "necessary": 3791,
  "ordered": 3792,
  "cab": 3793,
  "sent": 3794,
  "soundtrack": 3795,
  "goodness": 3796,
  "cotton": 3797,
  "##eis": 3798,
  "flavor": 3799,
  "wife": 3800,
  "##thi": 3801,
  "deer": 3802,
  "hidden": 3803,
  "gems": 3804,
  "##xie": 3805,
  "elegant": 3806,
  "squid": 3807,
  "cheating": 3808,
  "harley": 3809,
  "terminal": 3810,
  "daylight": 3811,
  "tape": 3812,
  "bond": 3813,
  "##hair": 3814,
  "rocket": 3815,
  "science": 3816,
  "music": 3817,
  "digital": 3818,
  "wax": 3819,
  "tomatoes": 3820,
  "magnet": 3821,
  "downtown": 3822,
  "iced": 3823,
  "peaceful": 3824,
  "booking": 3825,
  "##idal": 3826,
  "##52": 3827,
  "##7": 3828,
  "##42": 3829,
  "##75": 3830,
  "hates": 3831,
  "harness": 3832,
  "switch": 3833,
  "savannah": 3834,
  "19": 3835,
  "dat": 3836,
  "bump": 3837,
  "swap": 3838,
  "finds": 3839,
  "gentleman": 3840,
  "itself": 3841,
  "accessory": 3842,
  "yi": 3843,
  "laws": 3844,
  "represent": 3845,
  "grateful": 3846,
  "prayer": 3847,
  "saving": 3848,
  "##ks": 3849,
  "petty": 3850,
  "trek": 3851,
  "difficult": 3852,
  "imagined": 3853,
  "number": 3854,
  "five": 3855,
  "beloved": 3856,
  "female": 3857,
  "##birds": 3858,
  "west": 3859,
  "coast": 3860,
  "39": 3861,
  "000": 3862,
  "crush": 3863,
  "laid": 3864,
  "dying": 3865,
  "##dles": 3866,
  "stores": 3867,
  "portugal": 3868,
  "skies": 3869,
  "woken": 3870,
  "rooms": 3871,
  "complaining": 3872,
  "problems": 3873,
  "solution": 3874,
  "wu": 3875,
  "murals": 3876,
  "carl": 3877,
  "##sb": 3878,
  "banging": 3879,
  "cl": 3880,
  "chow": 3881,
  "##der": 3882,
  "appearance": 3883,
  "posts": 3884,
  "owner": 3885,
  "nursery": 3886,
  "gray": 3887,
  "allowed": 3888,
  "shower": 3889,
  "death": 3890,
  "sights": 3891,
  "grill": 3892,
  "##mi": 3893,
  "##hir": 3894,
  "##wind": 3895,
  "demo": 3896,
  "rebuild": 3897,
  "picnic": 3898,
  "curtain": 3899,
  "ceiling": 3900,
  "foundation": 3901,
  "philadelphia": 3902,
  "sophie": 3903,
  "bridges": 3904,
  "grandparents": 3905,
  "maui": 3906,
  "##work": 3907,
  "##llet": 3908,
  "iphone": 3909,
  "##des": 3910,
  "elevator": 3911,
  "posters": 3912,
  "softball": 3913,
  "jim": 3914,
  "##js": 3915,
  "mickey": 3916,
  "sara": 3917,
  "squad": 3918,
  "chiefs": 3919,
  "opener": 3920,
  "##wi": 3921,
  "##rl": 3922,
  "porn": 3923,
  "aka": 3924,
  "##uit": 3925,
  "vegetables": 3926,
  "told": 3927,
  "##jon": 3928,
  "apples": 3929,
  "funky": 3930,
  "prints": 3931,
  "greeting": 3932,
  "contest": 3933,
  "fries": 3934,
  "##rp": 3935,
  "shorts": 3936,
  "runner": 3937,
  "award": 3938,
  "coach": 3939,
  "ginger": 3940,
  "fingers": 3941,
  "furniture": 3942,
  "##ow": 3943,
  "kindness": 3944,
  "aaa": 3945,
  "##and": 3946,
  "skirt": 3947,
  "cheek": 3948,
  "grown": 3949,
  "##hom": 3950,
  "##ype": 3951,
  "cereal": 3952,
  "wrist": 3953,
  "de": 3954,
  "dee": 3955,
  "leather": 3956,
  "loaf": 3957,
  "##udi": 3958,
  "buzz": 3959,
  "circle": 3960,
  "knowledge": 3961,
  "##lou": 3962,
  "##ali": 3963,
  "##ot": 3964,
  "feature": 3965,
  "single": 3966,
  "exchange": 3967,
  "flavour": 3968,
  "legitimate": 3969,
  "retro": 3970,
  "prices": 3971,
  "continue": 3972,
  "nj": 3973,
  "dutch": 3974,
  "shades": 3975,
  "power": 3976,
  "noel": 3977,
  "accident": 3978,
  "alcoholic": 3979,
  "warmer": 3980,
  "greens": 3981,
  "placement": 3982,
  "lamps": 3983,
  "amar": 3984,
  "culture": 3985,
  "guitar": 3986,
  "jenny": 3987,
  "drove": 3988,
  "muddy": 3989,
  "clearance": 3990,
  "event": 3991,
  "equals": 3992,
  "vegetarian": 3993,
  "longest": 3994,
  "stair": 3995,
  "gross": 3996,
  "cheat": 3997,
  "##art": 3998,
  "um": 3999,
  "upward": 4000,
  "gaze": 4001,
  "fuel": 4002,
  "orchid": 4003,
  "ding": 4004,
  "gain": 4005,
  "marathon": 4006,
  "##lk": 4007,
  "##zzy": 4008,
  "chair": 4009,
  "nicely": 4010,
  "eight": 4011,
  "nailed": 4012,
  "senior": 4013,
  "prom": 4014,
  "dry": 4015,
  "heritage": 4016,
  "spa": 4017,
  "##ech": 4018,
  "learned": 4019,
  "ale": 4020,
  "tour": 4021,
  "badge": 4022,
  "honor": 4023,
  "moons": 4024,
  "dirty": 4025,
  "##rt": 4026,
  "##ea": 4027,
  "paradise": 4028,
  "stumbled": 4029,
  "additions": 4030,
  "bowling": 4031,
  "whipped": 4032,
  "peacefully": 4033,
  "third": 4034,
  "tips": 4035,
  "pc": 4036,
  "awareness": 4037,
  "horse": 4038,
  "born": 4039,
  "waking": 4040,
  "rising": 4041,
  "tender": 4042,
  "forced": 4043,
  "jack": 4044,
  "ed": 4045,
  "lover": 4046,
  "courtesy": 4047,
  "reception": 4048,
  "coaster": 4049,
  "dexter": 4050,
  "temple": 4051,
  "watched": 4052,
  "##ump": 4053,
  "hawk": 4054,
  "speaking": 4055,
  "pay": 4056,
  "romantic": 4057,
  "superb": 4058,
  "outta": 4059,
  "##ons": 4060,
  "frog": 4061,
  "sierra": 4062,
  "mostly": 4063,
  "ribbon": 4064,
  "crunch": 4065,
  "near": 4066,
  "distance": 4067,
  "martin": 4068,
  "##9": 4069,
  "studying": 4070,
  "chilly": 4071,
  "arcade": 4072,
  "80s": 4073,
  "##war": 4074,
  "character": 4075,
  "hometown": 4076,
  "staple": 4077,
  "dil": 4078,
  "chips": 4079,
  "attack": 4080,
  "tennis": 4081,
  "cruiser": 4082,
  "##boat": 4083,
  "magnolia": 4084,
  "pat": 4085,
  "##isse": 4086,
  "pri": 4087,
  "##use": 4088,
  "cans": 4089,
  "tropical": 4090,
  "cock": 4091,
  "##ato": 4092,
  "festivities": 4093,
  "lineup": 4094,
  "##ya": 4095,
  "gnome": 4096,
  "minions": 4097,
  "##ec": 4098,
  "fourth": 4099,
  "pipe": 4100,
  "capture": 4101,
  "##eri": 4102,
  "##zing": 4103,
  "robot": 4104,
  "##one": 4105,
  "apron": 4106,
  "fix": 4107,
  "deny": 4108,
  "rolling": 4109,
  "zombie": 4110,
  "apocalypse": 4111,
  "awe": 4112,
  "image": 4113,
  "zone": 4114,
  "crossing": 4115,
  "mississippi": 4116,
  "ferry": 4117,
  "arctic": 4118,
  "dip": 4119,
  "##col": 4120,
  "##our": 4121,
  "currently": 4122,
  "ultimate": 4123,
  "grew": 4124,
  "1960": 4125,
  "moss": 4126,
  "##4": 4127,
  "queen": 4128,
  "superhero": 4129,
  "##wed": 4130,
  "grass": 4131,
  "##ont": 4132,
  "##hes": 4133,
  "##hel": 4134,
  "hen": 4135,
  "scott": 4136,
  "type": 4137,
  "natural": 4138,
  "lived": 4139,
  "balcony": 4140,
  "preschool": 4141,
  "##fl": 4142,
  "##ake": 4143,
  "treasures": 4144,
  "##itt": 4145,
  "cologne": 4146,
  "17": 4147,
  "km": 4148,
  "gear": 4149,
  "hoping": 4150,
  "screaming": 4151,
  "diva": 4152,
  "diamond": 4153,
  "disturb": 4154,
  "arizona": 4155,
  "bash": 4156,
  "uc": 4157,
  "student": 4158,
  "favourites": 4159,
  "digging": 4160,
  "whatever": 4161,
  "changes": 4162,
  "stanley": 4163,
  "vancouver": 4164,
  "comments": 4165,
  "wiener": 4166,
  "foolish": 4167,
  "serve": 4168,
  "gem": 4169,
  "##dic": 4170,
  "bristol": 4171,
  "04": 4172,
  "25": 4173,
  "##tie": 4174,
  "dan": 4175,
  "##ions": 4176,
  "##hall": 4177,
  "##ran": 4178,
  "lakes": 4179,
  "netherlands": 4180,
  "##int": 4181,
  "##pac": 4182,
  "yarn": 4183,
  "bela": 4184,
  "mans": 4185,
  "shave": 4186,
  "cherry": 4187,
  "flooding": 4188,
  "stuffing": 4189,
  "funnel": 4190,
  "##ors": 4191,
  "types": 4192,
  "doctor": 4193,
  "computer": 4194,
  "tank": 4195,
  "##cast": 4196,
  "trust": 4197,
  "##ding": 4198,
  "110": 4199,
  "##ou": 4200,
  "alaska": 4201,
  "##pur": 4202,
  "markers": 4203,
  "pine": 4204,
  "##apple": 4205,
  "comfort": 4206,
  "ravi": 4207,
  "##oli": 4208,
  "miserable": 4209,
  "teeth": 4210,
  "gut": 4211,
  "failure": 4212,
  "justin": 4213,
  "focus": 4214,
  "drake": 4215,
  "##ized": 4216,
  "seeds": 4217,
  "portrait": 4218,
  "land": 4219,
  "continuing": 4220,
  "tapes": 4221,
  "control": 4222,
  "wit": 4223,
  "sucker": 4224,
  "sigh": 4225,
  "glance": 4226,
  "##ching": 4227,
  "against": 4228,
  "background": 4229,
  "fallen": 4230,
  "germany": 4231,
  "sheet": 4232,
  "deco": 4233,
  "##aged": 4234,
  "dread": 4235,
  "transport": 4236,
  "survive": 4237,
  "rubs": 4238,
  "scared": 4239,
  "meetings": 4240,
  "craving": 4241,
  "flirt": 4242,
  "##wil": 4243,
  "track": 4244,
  "smoke": 4245,
  "fails": 4246,
  "cheer": 4247,
  "##dog": 4248,
  "homework": 4249,
  "golden": 4250,
  "gate": 4251,
  "sideways": 4252,
  "ticket": 4253,
  "kitten": 4254,
  "cure": 4255,
  "shitty": 4256,
  "hurt": 4257,
  "ferns": 4258,
  "pile": 4259,
  "crap": 4260,
  "frame": 4261,
  "iron": 4262,
  "##cloth": 4263,
  "##ams": 4264,
  "venice": 4265,
  "liberty": 4266,
  "advent": 4267,
  "calendar": 4268,
  "bk": 4269,
  "dome": 4270,
  "toronto": 4271,
  "graveyard": 4272,
  "passed": 4273,
  "22": 4274,
  "crowns": 4275,
  "newspaper": 4276,
  "brilliant": 4277,
  "snapped": 4278,
  "fountain": 4279,
  "waterfall": 4280,
  "exists": 4281,
  "saints": 4282,
  "licking": 4283,
  "mixer": 4284,
  "childhood": 4285,
  "flu": 4286,
  "##ffed": 4287,
  "collections": 4288,
  "squirrel": 4289,
  "broke": 4290,
  "parker": 4291,
  "sunglasses": 4292,
  "exhaust": 4293,
  "##eye": 4294,
  "##nation": 4295,
  "passageway": 4296,
  "hyper": 4297,
  "maternity": 4298,
  "##wife": 4299,
  "unique": 4300,
  "bone": 4301,
  "hooked": 4302,
  "jumps": 4303,
  "jar": 4304,
  "##vy": 4305,
  "texture": 4306,
  "scramble": 4307,
  "killing": 4308,
  "##drop": 4309,
  "cares": 4310,
  "tucker": 4311,
  "dos": 4312,
  "meadows": 4313,
  "ban": 4314,
  "rides": 4315,
  "exciting": 4316,
  "border": 4317,
  "##lies": 4318,
  "basically": 4319,
  "leash": 4320,
  "grind": 4321,
  "##hat": 4322,
  "##emon": 4323,
  "remind": 4324,
  "tin": 4325,
  "##ker": 4326,
  "##bell": 4327,
  "toy": 4328,
  "baha": 4329,
  "none": 4330,
  "kicking": 4331,
  "##ian": 4332,
  "swamp": 4333,
  "excitement": 4334,
  "scar": 4335,
  "grapes": 4336,
  "butt": 4337,
  "exposure": 4338,
  "afternoons": 4339,
  "require": 4340,
  "spell": 4341,
  "roots": 4342,
  "##mat": 4343,
  "begun": 4344,
  "yep": 4345,
  "listing": 4346,
  "lin": 4347,
  "national": 4348,
  "appropriate": 4349,
  "johnny": 4350,
  "memories": 4351,
  "scenery": 4352,
  "objects": 4353,
  "##son": 4354,
  "##ges": 4355,
  "bomber": 4356,
  "unfortunately": 4357,
  "##yt": 4358,
  "##hing": 4359,
  "tagged": 4360,
  "mis": 4361,
  "nightmare": 4362,
  "observing": 4363,
  "hospital": 4364,
  "struggles": 4365,
  "steelers": 4366,
  "tight": 4367,
  "seaside": 4368,
  "##se": 4369,
  "##pic": 4370,
  "christ": 4371,
  "discovering": 4372,
  "soccer": 4373,
  "young": 4374,
  "bing": 4375,
  "recovery": 4376,
  "nutrition": 4377,
  "rude": 4378,
  "huh": 4379,
  "fable": 4380,
  "harlem": 4381,
  "respect": 4382,
  "sin": 4383,
  "decide": 4384,
  "stark": 4385,
  "tim": 4386,
  "service": 4387,
  "thirty": 4388,
  "mile": 4389,
  "ski": 4390,
  "felt": 4391,
  "large": 4392,
  "selection": 4393,
  "wars": 4394,
  "spray": 4395,
  "satisfied": 4396,
  "restaurant": 4397,
  "beth": 4398,
  "cabin": 4399,
  "breast": 4400,
  "newborn": 4401,
  "items": 4402,
  "##lica": 4403,
  "add": 4404,
  "blind": 4405,
  "##bar": 4406,
  "bi": 4407,
  "badges": 4408,
  "owns": 4409,
  "army": 4410,
  "conditions": 4411,
  "wyoming": 4412,
  "highway": 4413,
  "blood": 4414,
  "rich": 4415,
  "bands": 4416,
  "nest": 4417,
  "##c": 4418,
  "##ella": 4419,
  "neat": 4420,
  "van": 4421,
  "burning": 4422,
  "customers": 4423,
  "wcw": 4424,
  "picked": 4425,
  "envelope": 4426,
  "skinny": 4427,
  "joseph": 4428,
  "highs": 4429,
  "##ol": 4430,
  "ontario": 4431,
  "##ru": 4432,
  "hips": 4433,
  "jen": 4434,
  "baltimore": 4435,
  "desire": 4436,
  "demand": 4437,
  "raven": 4438,
  "entertaining": 4439,
  "fern": 4440,
  "sir": 4441,
  "jesus": 4442,
  "perfectly": 4443,
  "moody": 4444,
  "slot": 4445,
  "swing": 4446,
  "33": 4447,
  "total": 4448,
  "typical": 4449,
  "mer": 4450,
  "appreciated": 4451,
  "decay": 4452,
  "##de": 4453,
  "minnesota": 4454,
  "states": 4455,
  "23": 4456,
  "bon": 4457,
  "copy": 4458,
  "##len": 4459,
  "study": 4460,
  "canvas": 4461,
  "chase": 4462,
  "##game": 4463,
  "bookstore": 4464,
  "followed": 4465,
  "india": 4466,
  "stoke": 4467,
  "grand": 4468,
  "striking": 4469,
  "pose": 4470,
  "academy": 4471,
  "managed": 4472,
  "##iver": 4473,
  "direction": 4474,
  "rodeo": 4475,
  "lab": 4476,
  "creative": 4477,
  "woody": 4478,
  "zen": 4479,
  "sk": 4480,
  "rum": 4481,
  "sapphire": 4482,
  "##as": 4483,
  "mayor": 4484,
  "rosie": 4485,
  "fetch": 4486,
  "decisions": 4487,
  "onto": 4488,
  "##ache": 4489,
  "husky": 4490,
  "##thed": 4491,
  "##ood": 4492,
  "helping": 4493,
  "##hp": 4494,
  "insert": 4495,
  "spaghetti": 4496,
  "idiot": 4497,
  "goat": 4498,
  "relief": 4499,
  "##ook": 4500,
  "bid": 4501,
  "farewell": 4502,
  "visitor": 4503,
  "elvis": 4504,
  "faded": 4505,
  "fucked": 4506,
  "prison": 4507,
  "dia": 4508,
  "##mute": 4509,
  "##fly": 4510,
  "outdoors": 4511,
  "waters": 4512,
  "enjoyed": 4513,
  "balloon": 4514,
  "pastor": 4515,
  "pendant": 4516,
  "celebrations": 4517,
  "properly": 4518,
  "rained": 4519,
  "fearless": 4520,
  "drop": 4521,
  "shaved": 4522,
  "letting": 4523,
  "##fy": 4524,
  "gi": 4525,
  "##raf": 4526,
  "waterfront": 4527,
  "blogger": 4528,
  "overnight": 4529,
  "gods": 4530,
  "##ile": 4531,
  "rai": 4532,
  "##sin": 4533,
  "medieval": 4534,
  "##rated": 4535,
  "player": 4536,
  "excuses": 4537,
  "period": 4538,
  "boxes": 4539,
  "jeep": 4540,
  "def": 4541,
  "sets": 4542,
  "##pro": 4543,
  "##ject": 4544,
  "##ties": 4545,
  "filters": 4546,
  "danny": 4547,
  "##list": 4548,
  "reykjavik": 4549,
  "distraction": 4550,
  "marvel": 4551,
  "vest": 4552,
  "promise": 4553,
  "delivering": 4554,
  "blessings": 4555,
  "taller": 4556,
  "flats": 4557,
  "mail": 4558,
  "sw": 4559,
  "retail": 4560,
  "geek": 4561,
  "planes": 4562,
  "harbor": 4563,
  "##az": 4564,
  "carnival": 4565,
  "styles": 4566,
  "arm": 4567,
  "master": 4568,
  "locked": 4569,
  "##ttle": 4570,
  "anatomy": 4571,
  "ki": 4572,
  "borrowed": 4573,
  "ears": 4574,
  "##ise": 4575,
  "realize": 4576,
  "beds": 4577,
  "shanghai": 4578,
  "dolly": 4579,
  "##was": 4580,
  "boating": 4581,
  "doe": 4582,
  "uh": 4583,
  "fred": 4584,
  "rat": 4585,
  "##ied": 4586,
  "backpack": 4587,
  "bum": 4588,
  "sweden": 4589,
  "doctors": 4590,
  "psyche": 4591,
  "themed": 4592,
  "society": 4593,
  "cracks": 4594,
  "blanket": 4595,
  "ge": 4596,
  "soc": 4597,
  "freedom": 4598,
  "liking": 4599,
  "tunnel": 4600,
  "##man": 4601,
  "##like": 4602,
  "##frid": 4603,
  "prince": 4604,
  "snaps": 4605,
  "frost": 4606,
  "minneapolis": 4607,
  "fill": 4608,
  "product": 4609,
  "noodles": 4610,
  "ghetto": 4611,
  "##pants": 4612,
  "pet": 4613,
  "rag": 4614,
  "garland": 4615,
  "lion": 4616,
  "##uga": 4617,
  "tv": 4618,
  "surfing": 4619,
  "sofia": 4620,
  "comic": 4621,
  "dai": 4622,
  "##nty": 4623,
  "fool": 4624,
  "wrote": 4625,
  "barcelona": 4626,
  "edited": 4627,
  "51": 4628,
  "traveling": 4629,
  "freak": 4630,
  "##yard": 4631,
  "cell": 4632,
  "hacked": 4633,
  "peter": 4634,
  "oliver": 4635,
  "reindeer": 4636,
  "cart": 4637,
  "##age": 4638,
  "surrey": 4639,
  "grabbing": 4640,
  "pow": 4641,
  "dallas": 4642,
  "det": 4643,
  "underwear": 4644,
  "worlds": 4645,
  "locals": 4646,
  "parenting": 4647,
  "magazine": 4648,
  "anytime": 4649,
  "echo": 4650,
  "dating": 4651,
  "kinetic": 4652,
  "coil": 4653,
  "relocation": 4654,
  "48": 4655,
  "barbie": 4656,
  "explosion": 4657,
  "guests": 4658,
  "stillness": 4659,
  "angel": 4660,
  "reasons": 4661,
  "##eti": 4662,
  "##zer": 4663,
  "lime": 4664,
  "ja": 4665,
  "indian": 4666,
  "strips": 4667,
  "phoenix": 4668,
  "maple": 4669,
  "grille": 4670,
  "##erina": 4671,
  "gm": 4672,
  "attempted": 4673,
  "06": 4674,
  "unexpected": 4675,
  "##ee": 4676,
  "note": 4677,
  "heartbreak": 4678,
  "pd": 4679,
  "training": 4680,
  "##fish": 4681,
  "completed": 4682,
  "eric": 4683,
  "##och": 4684,
  "##ane": 4685,
  "rd": 4686,
  "talented": 4687,
  "##oz": 4688,
  "weave": 4689,
  "nail": 4690,
  "polish": 4691,
  "misses": 4692,
  "##cu": 4693,
  "verb": 4694,
  "##ena": 4695,
  "guards": 4696,
  "seals": 4697,
  "universe": 4698,
  "limo": 4699,
  "##nce": 4700,
  "##llo": 4701,
  "secret": 4702,
  "puzzle": 4703,
  "australia": 4704,
  "##card": 4705,
  "vegas": 4706,
  "remain": 4707,
  "countdown": 4708,
  "soo": 4709,
  "sh": 4710,
  "songs": 4711,
  "##nna": 4712,
  "served": 4713,
  "tone": 4714,
  "treated": 4715,
  "italian": 4716,
  "par": 4717,
  "##sley": 4718,
  "superman": 4719,
  "halfway": 4720,
  "quarter": 4721,
  "illusion": 4722,
  "giants": 4723,
  "secrets": 4724,
  "hundred": 4725,
  "bites": 4726,
  "el": 4727,
  "leaders": 4728,
  "##gr": 4729,
  "##own": 4730,
  "delightful": 4731,
  "encouragement": 4732,
  "mercy": 4733,
  "creepy": 4734,
  "##pad": 4735,
  "##oc": 4736,
  "honestly": 4737,
  "catcher": 4738,
  "support": 4739,
  "trinity": 4740,
  "strange": 4741,
  "##ery": 4742,
  "salute": 4743,
  "5000": 4744,
  "##ei": 4745,
  "moose": 4746,
  "walks": 4747,
  "knocked": 4748,
  "flea": 4749,
  "newest": 4750,
  "##tyle": 4751,
  "rescue": 4752,
  "dug": 4753,
  "rub": 4754,
  "belly": 4755,
  "heir": 4756,
  "##lo": 4757,
  "##om": 4758,
  "##mont": 4759,
  "terrace": 4760,
  "0": 4761,
  "pain": 4762,
  "##yst": 4763,
  "##eric": 4764,
  "glamour": 4765,
  "fading": 4766,
  "florence": 4767,
  "timing": 4768,
  "trophy": 4769,
  "machine": 4770,
  "container": 4771,
  "dresses": 4772,
  "peas": 4773,
  "practice": 4774,
  "enter": 4775,
  "hulk": 4776,
  "mode": 4777,
  "smash": 4778,
  "maid": 4779,
  "##val": 4780,
  "pretending": 4781,
  "##gs": 4782,
  "##eck": 4783,
  "katie": 4784,
  "tuned": 4785,
  "ol": 4786,
  "held": 4787,
  "snake": 4788,
  "fashionable": 4789,
  "##hoot": 4790,
  "education": 4791,
  "##care": 4792,
  "pouring": 4793,
  "diego": 4794,
  "smiley": 4795,
  "lit": 4796,
  "##als": 4797,
  "sandwiches": 4798,
  "genius": 4799,
  "##ble": 4800,
  "pack": 4801,
  "##ig": 4802,
  "drivers": 4803,
  "accessories": 4804,
  "earrings": 4805,
  "##19": 4806,
  "reason": 4807,
  "adopted": 4808,
  "choice": 4809,
  "developing": 4810,
  "samples": 4811,
  "kyle": 4812,
  "among": 4813,
  "bubbles": 4814,
  "buffet": 4815,
  "##lay": 4816,
  "burnt": 4817,
  "decent": 4818,
  "major": 4819,
  "envy": 4820,
  "button": 4821,
  "ultra": 4822,
  "max": 4823,
  "##uring": 4824,
  "backwards": 4825,
  "retreat": 4826,
  "2009": 4827,
  "closed": 4828,
  "include": 4829,
  "faith": 4830,
  "##cap": 4831,
  "goal": 4832,
  "constantly": 4833,
  "europe": 4834,
  "02": 4835,
  "heal": 4836,
  "casting": 4837,
  "ee": 4838,
  "bank": 4839,
  "built": 4840,
  "goin": 4841,
  "blankets": 4842,
  "##pt": 4843,
  "##ious": 4844,
  "meals": 4845,
  "beneath": 4846,
  "##dis": 4847,
  "volleyball": 4848,
  "ser": 4849,
  "##end": 4850,
  "##ip": 4851,
  "##ity": 4852,
  "charms": 4853,
  "mermaid": 4854,
  "statue": 4855,
  "wes": 4856,
  "##nis": 4857,
  "landed": 4858,
  "sam": 4859,
  "smith": 4860,
  "plays": 4861,
  "softly": 4862,
  "1970": 4863,
  "purse": 4864,
  "##liner": 4865,
  "bergen": 4866,
  "bang": 4867,
  "ship": 4868,
  "ct": 4869,
  "##ny": 4870,
  "##haven": 4871,
  "facial": 4872,
  "clear": 4873,
  "spiked": 4874,
  "##hine": 4875,
  "eventually": 4876,
  "matters": 4877,
  "rules": 4878,
  "basic": 4879,
  "octopus": 4880,
  "##ction": 4881,
  "stare": 4882,
  "##ele": 4883,
  "ram": 4884,
  "crater": 4885,
  "hue": 4886,
  "tragic": 4887,
  "colt": 4888,
  "##ana": 4889,
  "plastic": 4890,
  "cups": 4891,
  "mat": 4892,
  "##kk": 4893,
  "##ete": 4894,
  "##gni": 4895,
  "##nger": 4896,
  "sonic": 4897,
  "mani": 4898,
  "##cure": 4899,
  "production": 4900,
  "drawn": 4901,
  "tear": 4902,
  "willow": 4903,
  "duty": 4904,
  "hottest": 4905,
  "galaxy": 4906,
  "storms": 4907,
  "crystals": 4908,
  "##cl": 4909,
  "blasting": 4910,
  "rom": 4911,
  "sweetie": 4912,
  "sub": 4913,
  "legacy": 4914,
  "inn": 4915,
  "roast": 4916,
  "shorter": 4917,
  "celebrity": 4918,
  "ur": 4919,
  "##wing": 4920,
  "pirates": 4921,
  "fires": 4922,
  "moved": 4923,
  "messed": 4924,
  "chew": 4925,
  "##bie": 4926,
  "paw": 4927,
  "account": 4928,
  "moving": 4929,
  "anything": 4930,
  "headache": 4931,
  "ann": 4932,
  "loft": 4933,
  "olivia": 4934,
  "logo": 4935,
  "safely": 4936,
  "lax": 4937,
  "lu": 4938,
  "##bies": 4939,
  "crank": 4940,
  "helmet": 4941,
  "differently": 4942,
  "hopeful": 4943,
  "je": 4944,
  "jay": 4945,
  "humanity": 4946,
  "##mini": 4947,
  "sons": 4948,
  "##sel": 4949,
  "mix": 4950,
  "buttons": 4951,
  "gypsy": 4952,
  "hound": 4953,
  "diamonds": 4954,
  "tha": 4955,
  "infinity": 4956,
  "scarf": 4957,
  "sewing": 4958,
  "hydra": 4959,
  "poison": 4960,
  "direct": 4961,
  "ob": 4962,
  "tar": 4963,
  "plank": 4964,
  "##bl": 4965,
  "##og": 4966,
  "bohemian": 4967,
  "dreamer": 4968,
  "surf": 4969,
  "claire": 4970,
  "christine": 4971,
  "stadium": 4972,
  "feast": 4973,
  "despite": 4974,
  "cai": 4975,
  "##rn": 4976,
  "burn": 4977,
  "screw": 4978,
  "8th": 4979,
  "##ka": 4980,
  "newly": 4981,
  "##ism": 4982,
  "package": 4983,
  "perfume": 4984,
  "blanc": 4985,
  "du": 4986,
  "worried": 4987,
  "inches": 4988,
  "voice": 4989,
  "uk": 4990,
  "pottery": 4991,
  "existence": 4992,
  "##load": 4993,
  "invited": 4994,
  "##ings": 4995,
  "ind": 4996,
  "##ul": 4997,
  "##gence": 4998,
  "##vs": 4999,
  "##13": 5000,
  "2012": 5001,
  "shapes": 5002,
  "wr": 5003,
  "actual": 5004,
  "louder": 5005,
  "gin": 5006,
  "posing": 5007,
  "chapel": 5008,
  "cue": 5009,
  "##nch": 5010,
  "friendly": 5011,
  "bombing": 5012,
  "##thing": 5013,
  "base": 5014,
  "elder": 5015,
  "named": 5016,
  "##dad": 5017,
  "throwing": 5018,
  "lining": 5019,
  "darkest": 5020,
  "der": 5021,
  "pussy": 5022,
  "bucket": 5023,
  "curve": 5024,
  "hem": 5025,
  "##med": 5026,
  "pants": 5027,
  "suppose": 5028,
  "prairie": 5029,
  "restaurants": 5030,
  "ties": 5031,
  "pocket": 5032,
  "colours": 5033,
  "##rdy": 5034,
  "sweetheart": 5035,
  "##ud": 5036,
  "##oir": 5037,
  "##hood": 5038,
  "lines": 5039,
  "odd": 5040,
  "picturesque": 5041,
  "##flow": 5042,
  "##que": 5043,
  "focused": 5044,
  "teams": 5045,
  "##ege": 5046,
  "stretching": 5047,
  "trucks": 5048,
  "authentic": 5049,
  "lewis": 5050,
  "2nd": 5051,
  "knives": 5052,
  "seasons": 5053,
  "rim": 5054,
  "deals": 5055,
  "blackberry": 5056,
  "proper": 5057,
  "gap": 5058,
  "brings": 5059,
  "spaces": 5060,
  "##oat": 5061,
  "main": 5062,
  "goods": 5063,
  "pleasures": 5064,
  "##ema": 5065,
  "##tis": 5066,
  "mist": 5067,
  "low": 5068,
  "somerset": 5069,
  "levels": 5070,
  "##ga": 5071,
  "gallery": 5072,
  "##paper": 5073,
  "brussels": 5074,
  "applying": 5075,
  "league": 5076,
  "7th": 5077,
  "taylor": 5078,
  "swift": 5079,
  "charming": 5080,
  "expressions": 5081,
  "surprised": 5082,
  "thousands": 5083,
  "walls": 5084,
  "slide": 5085,
  "moroccan": 5086,
  "die": 5087,
  "assistant": 5088,
  "recital": 5089,
  "curb": 5090,
  "##ods": 5091,
  "strand": 5092,
  "##box": 5093,
  "youngest": 5094,
  "slightly": 5095,
  "length": 5096,
  "listen": 5097,
  "2007": 5098,
  "watches": 5099,
  "cone": 5100,
  "organize": 5101,
  "championship": 5102,
  "##ah": 5103,
  "sibling": 5104,
  "montreal": 5105,
  "paying": 5106,
  "due": 5107,
  "##kra": 5108,
  "knowing": 5109,
  "development": 5110,
  "lads": 5111,
  "innocent": 5112,
  "desperate": 5113,
  "##world": 5114,
  "84": 5115,
  "wore": 5116,
  "inc": 5117,
  "##ent": 5118,
  "letters": 5119,
  "flawless": 5120,
  "vitamin": 5121,
  "##ai": 5122,
  "nationals": 5123,
  "pools": 5124,
  "##ide": 5125,
  "ceramics": 5126,
  "wins": 5127,
  "jared": 5128,
  "shops": 5129,
  "stealing": 5130,
  "photographed": 5131,
  "hangs": 5132,
  "ke": 5133,
  "prime": 5134,
  "rib": 5135,
  "##cy": 5136,
  "elephant": 5137,
  "##oe": 5138,
  "sting": 5139,
  "##lynn": 5140,
  "wisconsin": 5141,
  "wal": 5142,
  "##mart": 5143,
  "wires": 5144,
  "simplicity": 5145,
  "##book": 5146,
  "duke": 5147,
  "70": 5148,
  "march": 5149,
  "lies": 5150,
  "##port": 5151,
  "turning": 5152,
  "catering": 5153,
  "##ro": 5154,
  "##esh": 5155,
  "joint": 5156,
  "shack": 5157,
  "##ori": 5158,
  "plaza": 5159,
  "stripes": 5160,
  "obviously": 5161,
  "werewolf": 5162,
  "dublin": 5163,
  "pads": 5164,
  "adults": 5165,
  "alike": 5166,
  "##bel": 5167,
  "sal": 5168,
  "kidding": 5169,
  "truly": 5170,
  "##ek": 5171,
  "##kie": 5172,
  "##ably": 5173,
  "slug": 5174,
  "recently": 5175,
  "club": 5176,
  "eyebrow": 5177,
  "yacht": 5178,
  "lacy": 5179,
  "interiors": 5180,
  "fragrance": 5181,
  "##dy": 5182,
  "##tag": 5183,
  "3rd": 5184,
  "weeds": 5185,
  "##than": 5186,
  "smashing": 5187,
  "tied": 5188,
  "##hu": 5189,
  "cartoon": 5190,
  "corona": 5191,
  "austria": 5192,
  "traveler": 5193,
  "notebook": 5194,
  "iowa": 5195,
  "ella": 5196,
  "message": 5197,
  "testing": 5198,
  "test": 5199,
  "tides": 5200,
  "dose": 5201,
  "fairies": 5202,
  "skulls": 5203,
  "extremely": 5204,
  "bass": 5205,
  "##nate": 5206,
  "##vich": 5207,
  "settled": 5208,
  "brandon": 5209,
  "receiving": 5210,
  "relaxed": 5211,
  "spontaneous": 5212,
  "##outs": 5213,
  "cooling": 5214,
  "slim": 5215,
  "##hua": 5216,
  "jokes": 5217,
  "##pher": 5218,
  "dipped": 5219,
  "playful": 5220,
  "##ate": 5221,
  "favorites": 5222,
  "monopoly": 5223,
  "overall": 5224,
  "freshman": 5225,
  "savage": 5226,
  "loyal": 5227,
  "sous": 5228,
  "##dit": 5229,
  "tires": 5230,
  "summers": 5231,
  "warmth": 5232,
  "sell": 5233,
  "pony": 5234,
  "tons": 5235,
  "venom": 5236,
  "minnie": 5237,
  "lulu": 5238,
  "threw": 5239,
  "position": 5240,
  "##etti": 5241,
  "embracing": 5242,
  "eyed": 5243,
  "trails": 5244,
  "##pre": 5245,
  "53": 5246,
  "bitter": 5247,
  "strive": 5248,
  "##gre": 5249,
  "charlie": 5250,
  "trout": 5251,
  "nas": 5252,
  "##tur": 5253,
  "finger": 5254,
  "stolen": 5255,
  "camel": 5256,
  "gave": 5257,
  "morocco": 5258,
  "duo": 5259,
  "stays": 5260,
  "escaped": 5261,
  "decoration": 5262,
  "situation": 5263,
  "papers": 5264,
  "awhile": 5265,
  "emerald": 5266,
  "##nge": 5267,
  "accidental": 5268,
  "crossed": 5269,
  "zip": 5270,
  "lace": 5271,
  "##color": 5272,
  "tick": 5273,
  "gum": 5274,
  "blossom": 5275,
  "bikes": 5276,
  "bringing": 5277,
  "patiently": 5278,
  "infamous": 5279,
  "villain": 5280,
  "pole": 5281,
  "sesame": 5282,
  "eats": 5283,
  "wonders": 5284,
  "waist": 5285,
  "material": 5286,
  "whip": 5287,
  "status": 5288,
  "professional": 5289,
  "##grate": 5290,
  "woo": 5291,
  "speaks": 5292,
  "seniors": 5293,
  "trade": 5294,
  "maroon": 5295,
  "##vac": 5296,
  "##ation": 5297,
  "##14": 5298,
  "habit": 5299,
  "plum": 5300,
  "08": 5301,
  "poke": 5302,
  "alright": 5303,
  "gentlemen": 5304,
  "##stic": 5305,
  "cones": 5306,
  "triumph": 5307,
  "evenings": 5308,
  "flick": 5309,
  "term": 5310,
  "salvation": 5311,
  "destroyed": 5312,
  "token": 5313,
  "dar": 5314,
  "signs": 5315,
  "skyline": 5316,
  "apartment": 5317,
  "historic": 5318,
  "##ll": 5319,
  "##wood": 5320,
  "##water": 5321,
  "himself": 5322,
  "neck": 5323,
  "terror": 5324,
  "queens": 5325,
  "##town": 5326,
  "ford": 5327,
  "rod": 5328,
  "##ex": 5329,
  "noticed": 5330,
  "needles": 5331,
  "flaming": 5332,
  "guns": 5333,
  "etc": 5334,
  "invitation": 5335,
  "swam": 5336,
  "fantasy": 5337,
  "tile": 5338,
  "relaxation": 5339,
  "proving": 5340,
  "nude": 5341,
  "terra": 5342,
  "cot": 5343,
  "exclusive": 5344,
  "bark": 5345,
  "##ories": 5346,
  "realized": 5347,
  "puck": 5348,
  "running": 5349,
  "olympic": 5350,
  "gang": 5351,
  "wise": 5352,
  "addict": 5353,
  "lane": 5354,
  "##ney": 5355,
  "buds": 5356,
  "brush": 5357,
  "##bf": 5358,
  "subtle": 5359,
  "##lar": 5360,
  "tab": 5361,
  "##ule": 5362,
  "carbon": 5363,
  "awards": 5364,
  "brunette": 5365,
  "slice": 5366,
  "manhattan": 5367,
  "flowering": 5368,
  "honest": 5369,
  "model": 5370,
  "reward": 5371,
  "couch": 5372,
  "angry": 5373,
  "##pas": 5374,
  "unless": 5375,
  "continues": 5376,
  "destroy": 5377,
  "lie": 5378,
  "drives": 5379,
  "mysterious": 5380,
  "wrapping": 5381,
  "during": 5382,
  "gabriel": 5383,
  "dynamic": 5384,
  "##tton": 5385,
  "manila": 5386,
  "blame": 5387,
  "stew": 5388,
  "rode": 5389,
  "important": 5390,
  "tigers": 5391,
  "jackson": 5392,
  "michigan": 5393,
  "denim": 5394,
  "magnificent": 5395,
  "hug": 5396,
  "hilarious": 5397,
  "easily": 5398,
  "pope": 5399,
  "paul": 5400,
  "##akes": 5401,
  "massage": 5402,
  "dinners": 5403,
  "breathe": 5404,
  "nowhere": 5405,
  "dusk": 5406,
  "surprising": 5407,
  "##lish": 5408,
  "smallest": 5409,
  "maddie": 5410,
  "turns": 5411,
  "masks": 5412,
  "preview": 5413,
  "chili": 5414,
  "skull": 5415,
  "limit": 5416,
  "weights": 5417,
  "##pw": 5418,
  "boxing": 5419,
  "google": 5420,
  "playground": 5421,
  "research": 5422,
  "backseat": 5423,
  "mor": 5424,
  "presentation": 5425,
  "diesel": 5426,
  "foster": 5427,
  "##raz": 5428,
  "humans": 5429,
  "chihuahua": 5430,
  "bet": 5431,
  "bathing": 5432,
  "supporting": 5433,
  "motor": 5434,
  "bakery": 5435,
  "##kins": 5436,
  "brighter": 5437,
  "hannah": 5438,
  "danish": 5439,
  "balloons": 5440,
  "lounge": 5441,
  "private": 5442,
  "route": 5443,
  "praise": 5444,
  "fitting": 5445,
  "##min": 5446,
  "cha": 5447,
  "ruined": 5448,
  "##rb": 5449,
  "##et": 5450,
  "roar": 5451,
  "kissed": 5452,
  "buys": 5453,
  "sticks": 5454,
  "shells": 5455,
  "mario": 5456,
  "resolution": 5457,
  "projects": 5458,
  "roaming": 5459,
  "carousel": 5460,
  "panel": 5461,
  "canon": 5462,
  "pump": 5463,
  "penguin": 5464,
  "jewellery": 5465,
  "spreading": 5466,
  "slight": 5467,
  "blank": 5468,
  "##gul": 5469,
  "##omp": 5470,
  "grounds": 5471,
  "nike": 5472,
  "mc": 5473,
  "mason": 5474,
  "hm": 5475,
  "brass": 5476,
  "location": 5477,
  "##to": 5478,
  "##osh": 5479,
  "definition": 5480,
  "montana": 5481,
  "##mist": 5482,
  "##bing": 5483,
  "vision": 5484,
  "knot": 5485,
  "brian": 5486,
  "awful": 5487,
  "confusion": 5488,
  "fin": 5489,
  "hairy": 5490,
  "boss": 5491,
  "repeat": 5492,
  "kite": 5493,
  "icy": 5494,
  "beads": 5495,
  "hardcore": 5496,
  "anywhere": 5497,
  "court": 5498,
  "cathedral": 5499,
  "clue": 5500,
  "##ggy": 5501,
  "jam": 5502,
  "oxford": 5503,
  "##leader": 5504,
  "ordering": 5505,
  "stopping": 5506,
  "coin": 5507,
  "parties": 5508,
  "lessons": 5509,
  "coated": 5510,
  "##cor": 5511,
  "##ets": 5512,
  "thug": 5513,
  "##gin": 5514,
  "##lea": 5515,
  "iq": 5516,
  "staircase": 5517,
  "##tra": 5518,
  "sliding": 5519,
  "fig": 5520,
  "##uss": 5521,
  "laser": 5522,
  "laughs": 5523,
  "meditation": 5524,
  "pyramid": 5525,
  "towels": 5526,
  "drying": 5527,
  "notch": 5528,
  "canadian": 5529,
  "wildlife": 5530,
  "cod": 5531,
  "creature": 5532,
  "impact": 5533,
  "dick": 5534,
  "kansas": 5535,
  "miracles": 5536,
  "myrtle": 5537,
  "waste": 5538,
  "sarcasm": 5539,
  "thru": 5540,
  "neon": 5541,
  "##amp": 5542,
  "##ame": 5543,
  "cancer": 5544,
  "harsh": 5545,
  "gal": 5546,
  "tracks": 5547,
  "palace": 5548,
  "nietzsche": 5549,
  "dish": 5550,
  "freezing": 5551,
  "freaking": 5552,
  "##works": 5553,
  "convention": 5554,
  "whilst": 5555,
  "impressive": 5556,
  "spec": 5557,
  "##sw": 5558,
  "buildings": 5559,
  "malibu": 5560,
  "shen": 5561,
  "##ore": 5562,
  "serving": 5563,
  "tobacco": 5564,
  "customized": 5565,
  "lifts": 5566,
  "##ough": 5567,
  "sundays": 5568,
  "drums": 5569,
  "glazed": 5570,
  "lips": 5571,
  "motto": 5572,
  "habitat": 5573,
  "donkey": 5574,
  "public": 5575,
  "##nin": 5576,
  "penny": 5577,
  "##eet": 5578,
  "##nut": 5579,
  "rap": 5580,
  "sheep": 5581,
  "grazing": 5582,
  "signed": 5583,
  "porto": 5584,
  "##tze": 5585,
  "90": 5586,
  "steps": 5587,
  "islands": 5588,
  "wo": 5589,
  "staff": 5590,
  "teach": 5591,
  "gun": 5592,
  "##bone": 5593,
  "##app": 5594,
  "##are": 5595,
  "annoying": 5596,
  "exhaustion": 5597,
  "bubba": 5598,
  "glen": 5599,
  "veterans": 5600,
  "military": 5601,
  "families": 5602,
  "transformation": 5603,
  "##pd": 5604,
  "glacier": 5605,
  "certainly": 5606,
  "vin": 5607,
  "gloves": 5608,
  "install": 5609,
  "speed": 5610,
  "cass": 5611,
  "stil": 5612,
  "pets": 5613,
  "explain": 5614,
  "tokyo": 5615,
  "mass": 5616,
  "palo": 5617,
  "jumper": 5618,
  "roger": 5619,
  "blending": 5620,
  "runs": 5621,
  "fireplace": 5622,
  "##log": 5623,
  "##gers": 5624,
  "champs": 5625,
  "metro": 5626,
  "molly": 5627,
  "rug": 5628,
  "equal": 5629,
  "loss": 5630,
  "chopped": 5631,
  "oceans": 5632,
  "condo": 5633,
  "lark": 5634,
  "bowls": 5635,
  "##aday": 5636,
  "##ids": 5637,
  "acceptable": 5638,
  "candle": 5639,
  "stamped": 5640,
  "label": 5641,
  "stole": 5642,
  "crop": 5643,
  "##ped": 5644,
  "colored": 5645,
  "##bers": 5646,
  "title": 5647,
  "files": 5648,
  "sweating": 5649,
  "tearing": 5650,
  "##ak": 5651,
  "busted": 5652,
  "##cco": 5653,
  "##ls": 5654,
  "tip": 5655,
  "twice": 5656,
  "brooklyn": 5657,
  "expected": 5658,
  "tommy": 5659,
  "porch": 5660,
  "fixed": 5661,
  "notice": 5662,
  "hitting": 5663,
  "##igraphy": 5664,
  "potter": 5665,
  "finale": 5666,
  "sailor": 5667,
  "lean": 5668,
  "ingredients": 5669,
  "prepared": 5670,
  "poppy": 5671,
  "##fall": 5672,
  "paid": 5673,
  "insanity": 5674,
  "choosing": 5675,
  "kayla": 5676,
  "concerned": 5677,
  "return": 5678,
  "nasty": 5679,
  "##chet": 5680,
  "map": 5681,
  "jake": 5682,
  "names": 5683,
  "build": 5684,
  "er": 5685,
  "gains": 5686,
  "powder": 5687,
  "boulder": 5688,
  "austin": 5689,
  "circus": 5690,
  "helpful": 5691,
  "drunken": 5692,
  "concept": 5693,
  "ghost": 5694,
  "planted": 5695,
  "nurse": 5696,
  "reached": 5697,
  "obama": 5698,
  "##ots": 5699,
  "landing": 5700,
  "stella": 5701,
  "witty": 5702,
  "issues": 5703,
  "mania": 5704,
  "battle": 5705,
  "##face": 5706,
  "##ac": 5707,
  "##ones": 5708,
  "qu": 5709,
  "##ark": 5710,
  "##ens": 5711,
  "oldest": 5712,
  "43": 5713,
  "hunger": 5714,
  "acid": 5715,
  "##j": 5716,
  "##fra": 5717,
  "paddle": 5718,
  "spaceship": 5719,
  "seemed": 5720,
  "##ayo": 5721,
  "wendy": 5722,
  "needing": 5723,
  "edinburgh": 5724,
  "funk": 5725,
  "lying": 5726,
  "pier": 5727,
  "jealous": 5728,
  "tries": 5729,
  "blend": 5730,
  "mill": 5731,
  "9th": 5732,
  "eastern": 5733,
  "tow": 5734,
  "##hee": 5735,
  "ups": 5736,
  "arches": 5737,
  "guinea": 5738,
  "terrified": 5739,
  "saddle": 5740,
  "summit": 5741,
  "##hopper": 5742,
  "gage": 5743,
  "##fc": 5744,
  "contemporary": 5745,
  "curves": 5746,
  "rachel": 5747,
  "crash": 5748,
  "hp": 5749,
  "##nor": 5750,
  "##kel": 5751,
  "vinegar": 5752,
  "##land": 5753,
  "trips": 5754,
  "thou": 5755,
  "pressing": 5756,
  "dylan": 5757,
  "member": 5758,
  "mary": 5759,
  "##ok": 5760,
  "attention": 5761,
  "strikes": 5762,
  "##ido": 5763,
  "##able": 5764,
  "riverside": 5765,
  "flags": 5766,
  "barefoot": 5767,
  "##lab": 5768,
  "passenger": 5769,
  "boxers": 5770,
  "dash": 5771,
  "az": 5772,
  "civil": 5773,
  "liv": 5774,
  "surgery": 5775,
  "highest": 5776,
  "##bit": 5777,
  "ponder": 5778,
  "##eving": 5779,
  "##ne": 5780,
  "sue": 5781,
  "figure": 5782,
  "##sho": 5783,
  "winnie": 5784,
  "gives": 5785,
  "instead": 5786,
  "##market": 5787,
  "horizon": 5788,
  "tells": 5789,
  "##mme": 5790,
  "distant": 5791,
  "memorable": 5792,
  "dates": 5793,
  "option": 5794,
  "indoors": 5795,
  "locke": 5796,
  "appointments": 5797,
  "january": 5798,
  "crawling": 5799,
  "royalty": 5800,
  "umm": 5801,
  "chores": 5802,
  "nose": 5803,
  "##ssel": 5804,
  "##sti": 5805,
  "##tch": 5806,
  "winged": 5807,
  "##oy": 5808,
  "helped": 5809,
  "healing": 5810,
  "flaws": 5811,
  "imperfect": 5812,
  "mandal": 5813,
  "j": 5814,
  "elbow": 5815,
  "opera": 5816,
  "harbour": 5817,
  "elk": 5818,
  "upcoming": 5819,
  "russian": 5820,
  "laughing": 5821,
  "older": 5822,
  "further": 5823,
  "cow": 5824,
  "##kers": 5825,
  "##frame": 5826,
  "currie": 5827,
  "sticky": 5828,
  "##tt": 5829,
  "modern": 5830,
  "##ear": 5831,
  "colleagues": 5832,
  "skylar": 5833,
  "##yn": 5834,
  "mixed": 5835,
  "bill": 5836,
  "flights": 5837,
  "killer": 5838,
  "##90": 5839,
  "ak": 5840,
  "oregon": 5841,
  "lands": 5842,
  "##gon": 5843,
  "tools": 5844,
  "mod": 5845,
  "result": 5846,
  "salon": 5847,
  "camps": 5848,
  "sport": 5849,
  "changed": 5850,
  "##chs": 5851,
  "##hun": 5852,
  "dub": 5853,
  "rookie": 5854,
  "warehouse": 5855,
  "darker": 5856,
  "accomplished": 5857,
  "forehead": 5858,
  "comb": 5859,
  "biggest": 5860,
  "wardrobe": 5861,
  "mal": 5862,
  "##kes": 5863,
  "minus": 5864,
  "leading": 5865,
  "toad": 5866,
  "worn": 5867,
  "figured": 5868,
  "laps": 5869,
  "65": 5870,
  "alabama": 5871,
  "##week": 5872,
  "storage": 5873,
  "bin": 5874,
  "olds": 5875,
  "oz": 5876,
  "pl": 5877,
  "pleased": 5878,
  "##gl": 5879,
  "##ize": 5880,
  "clutch": 5881,
  "hardly": 5882,
  "##ming": 5883,
  "nuts": 5884,
  "doc": 5885,
  "slices": 5886,
  "wilderness": 5887,
  "maldives": 5888,
  "##au": 5889,
  "##tas": 5890,
  "velvet": 5891,
  "##fle": 5892,
  "toilet": 5893,
  "penn": 5894,
  "appeared": 5895,
  "##wn": 5896,
  "mines": 5897,
  "##kit": 5898,
  "cody": 5899,
  "##anne": 5900,
  "plans": 5901,
  "pines": 5902,
  "winery": 5903,
  "elves": 5904,
  "springs": 5905,
  "fridge": 5906,
  "55": 5907,
  "niagara": 5908,
  "adds": 5909,
  "##orous": 5910,
  "dawn": 5911,
  "windmill": 5912,
  "eu": 5913,
  "##nl": 5914,
  "greene": 5915,
  "##ong": 5916,
  "##ous": 5917,
  "##za": 5918,
  "stress": 5919,
  "6th": 5920,
  "silhouette": 5921,
  "heartland": 5922,
  "charge": 5923,
  "northwest": 5924,
  "bamboo": 5925,
  "holder": 5926,
  "dipping": 5927,
  "dirt": 5928,
  "chain": 5929,
  "fence": 5930,
  "basket": 5931,
  "smaller": 5932,
  "damage": 5933,
  "target": 5934,
  "hero": 5935,
  "sleeps": 5936,
  "##lis": 5937,
  "tang": 5938,
  "bari": 5939,
  "although": 5940,
  "barely": 5941,
  "hong": 5942,
  "kong": 5943,
  "franklin": 5944,
  "marble": 5945,
  "swirl": 5946,
  "##du": 5947,
  "##ated": 5948,
  "crowded": 5949,
  "10th": 5950,
  "prick": 5951,
  "##tors": 5952,
  "##ieg": 5953,
  "##sic": 5954,
  "featured": 5955,
  "losing": 5956,
  "spotlight": 5957,
  "##bly": 5958,
  "chapter": 5959,
  "shipped": 5960,
  "alpha": 5961,
  "phi": 5962,
  "25th": 5963,
  "fond": 5964,
  "##ue": 5965,
  "complicated": 5966,
  "agenda": 5967,
  "ireland": 5968,
  "albert": 5969,
  "began": 5970,
  "skill": 5971,
  "capitol": 5972,
  "rot": 5973,
  "##unda": 5974,
  "hasn": 5975,
  "incredibly": 5976,
  "restless": 5977,
  "scattered": 5978,
  "click": 5979,
  "sparkling": 5980,
  "kira": 5981,
  "##gly": 5982,
  "##lad": 5983,
  "washington": 5984,
  "##dc": 5985,
  "##cie": 5986,
  "safari": 5987,
  "poker": 5988,
  "southern": 5989,
  "rail": 5990,
  "prepare": 5991,
  "youth": 5992,
  "ferris": 5993,
  "##music": 5994,
  "pavement": 5995,
  "construction": 5996,
  "pinch": 5997,
  "##mar": 5998,
  "alumni": 5999,
  "mention": 6000,
  "21st": 6001,
  "gratitude": 6002,
  "relationship": 6003,
  "placed": 6004,
  "tailed": 6005,
  "citrus": 6006,
  "joey": 6007,
  "poses": 6008,
  "kindergarten": 6009,
  "muir": 6010,
  "charm": 6011,
  "photographers": 6012,
  "trick": 6013,
  "driveway": 6014,
  "oasis": 6015,
  "##iro": 6016,
  "jars": 6017,
  "involved": 6018,
  "##tf": 6019,
  "lei": 6020,
  "filming": 6021,
  "fear": 6022,
  "madrid": 6023,
  "rustic": 6024,
  "venue": 6025,
  "formal": 6026,
  "atmosphere": 6027,
  "shoulders": 6028,
  "##chai": 6029,
  "##ar": 6030,
  "guard": 6031,
  "squeak": 6032,
  "##mous": 6033,
  "cub": 6034,
  "cuts": 6035,
  "##ua": 6036,
  "sipping": 6037,
  "##nov": 6038,
  "##em": 6039,
  "eyebrows": 6040,
  "frank": 6041,
  "nor": 6042,
  "op": 6043,
  "lac": 6044,
  "killed": 6045,
  "##iss": 6046,
  "ribs": 6047,
  "##dd": 6048,
  "shocked": 6049,
  "turtles": 6050,
  "cia": 6051,
  "stepping": 6052,
  "exotic": 6053,
  "styling": 6054,
  "wink": 6055,
  "spike": 6056,
  "gentle": 6057,
  "fur": 6058,
  "crust": 6059,
  "sydney": 6060,
  "##sie": 6061,
  "preach": 6062,
  "wheels": 6063,
  "hardest": 6064,
  "shame": 6065,
  "curly": 6066,
  "360": 6067,
  "bt": 6068,
  "##ppe": 6069,
  "##kled": 6070,
  "ingredient": 6071,
  "glowing": 6072,
  "4a": 6073,
  "ep": 6074,
  "##cot": 6075,
  "terry": 6076,
  "journal": 6077,
  "greater": 6078,
  "presenting": 6079,
  "nc": 6080,
  "marina": 6081,
  "escape": 6082,
  "yin": 6083,
  "yang": 6084,
  "hurting": 6085,
  "knife": 6086,
  "planned": 6087,
  "ai": 6088,
  "invest": 6089,
  "drum": 6090,
  "wide": 6091,
  "cleveland": 6092,
  "tales": 6093,
  "network": 6094,
  "blizzard": 6095,
  "carpet": 6096,
  "mirrors": 6097,
  "##head": 6098,
  "##br": 6099,
  "traditional": 6100,
  "gt": 6101,
  "iv": 6102,
  "dies": 6103,
  "sparrow": 6104,
  "idol": 6105,
  "##ja": 6106,
  "cartoons": 6107,
  "##lers": 6108,
  "scout": 6109,
  "rick": 6110,
  "##ett": 6111,
  "loop": 6112,
  "signing": 6113,
  "swinging": 6114,
  "tug": 6115,
  "trains": 6116,
  "consisted": 6117,
  "trader": 6118,
  "joe": 6119,
  "##tem": 6120,
  "willing": 6121,
  "layer": 6122,
  "elegance": 6123,
  "fades": 6124,
  "bare": 6125,
  "lincoln": 6126,
  "feelings": 6127,
  "##vent": 6128,
  "##culus": 6129,
  "diner": 6130,
  "spotting": 6131,
  "veil": 6132,
  "squeeze": 6133,
  "##omi": 6134,
  "pal": 6135,
  "##lights": 6136,
  "darling": 6137,
  "jewels": 6138,
  "##bat": 6139,
  "pounds": 6140,
  "catfish": 6141,
  "flex": 6142,
  "cn": 6143,
  "paintings": 6144,
  "rally": 6145,
  "luxury": 6146,
  "moth": 6147,
  "converse": 6148,
  "conversation": 6149,
  "sofa": 6150,
  "vice": 6151,
  "versa": 6152,
  "maze": 6153,
  "##tail": 6154,
  "bother": 6155,
  "avenue": 6156,
  "ms": 6157,
  "stocked": 6158,
  "sold": 6159,
  "pleasure": 6160,
  "##red": 6161,
  "20th": 6162,
  "australian": 6163,
  "##craft": 6164,
  "##xa": 6165,
  "naturally": 6166,
  "beige": 6167,
  "decorate": 6168,
  "twinkle": 6169,
  "##poo": 6170,
  "jumped": 6171,
  "##run": 6172,
  "bedside": 6173,
  "meadow": 6174,
  "forms": 6175,
  "geese": 6176,
  "invasion": 6177,
  "volcano": 6178,
  "bounce": 6179,
  "trading": 6180,
  "##ike": 6181,
  "##cas": 6182,
  "alps": 6183,
  "##gree": 6184,
  "flow": 6185,
  "##play": 6186,
  "musical": 6187,
  "particularly": 6188,
  "sliced": 6189,
  "creeping": 6190,
  "cb": 6191,
  "med": 6192,
  "primary": 6193,
  "lagoon": 6194,
  "famous": 6195,
  "accurate": 6196,
  "hurts": 6197,
  "send": 6198,
  "##ote": 6199,
  "thrill": 6200,
  "##rg": 6201,
  "ts": 6202,
  "dorm": 6203,
  "grab": 6204,
  "mud": 6205,
  "spartan": 6206,
  "slopes": 6207,
  "##ture": 6208,
  "serene": 6209,
  "##edge": 6210,
  "matt": 6211,
  "mediterranean": 6212,
  "mustache": 6213,
  "patrick": 6214,
  "steel": 6215,
  "robin": 6216,
  "##lia": 6217,
  "q": 6218,
  "##point": 6219,
  "pouch": 6220,
  "##av": 6221,
  "2011": 6222,
  "##ych": 6223,
  "aquarium": 6224,
  "washing": 6225,
  "sink": 6226,
  "shady": 6227,
  "##free": 6228,
  "explains": 6229,
  "climbed": 6230,
  "attending": 6231,
  "##nese": 6232,
  "savings": 6233,
  "charcoal": 6234,
  "hook": 6235,
  "##tness": 6236,
  "evolution": 6237,
  "dare": 6238,
  "touching": 6239,
  "intern": 6240,
  "highland": 6241,
  "bonfire": 6242,
  "swings": 6243,
  "guessing": 6244,
  "stops": 6245,
  "rand": 6246,
  "rural": 6247,
  "ju": 6248,
  "##ines": 6249,
  "trump": 6250,
  "melted": 6251,
  "aurora": 6252,
  "roma": 6253,
  "##ttes": 6254,
  "courage": 6255,
  "##12": 6256,
  "variety": 6257,
  "sandals": 6258,
  "mosque": 6259,
  "200": 6260,
  "dc": 6261,
  "revolution": 6262,
  "sculpture": 6263,
  "setup": 6264,
  "bats": 6265,
  "bel": 6266,
  "beaten": 6267,
  "##bes": 6268,
  "hokkaido": 6269,
  "seek": 6270,
  "appeal": 6271,
  "##ssi": 6272,
  "strength": 6273,
  "andy": 6274,
  "##ys": 6275,
  "covers": 6276,
  "##boy": 6277,
  "jasper": 6278,
  "brushed": 6279,
  "premium": 6280,
  "119": 6281,
  "logan": 6282,
  "update": 6283,
  "leeds": 6284,
  "101": 6285,
  "ry": 6286,
  "##lee": 6287,
  "mold": 6288,
  "plug": 6289,
  "##ged": 6290,
  "emily": 6291,
  "caleb": 6292,
  "included": 6293,
  "##mot": 6294,
  "##hers": 6295,
  "endless": 6296,
  "aspen": 6297,
  "minds": 6298,
  "rhino": 6299,
  "draft": 6300,
  "botanical": 6301,
  "coral": 6302,
  "gables": 6303,
  "backs": 6304,
  "##lf": 6305,
  "answers": 6306,
  "##ail": 6307,
  "ivy": 6308,
  "78": 6309,
  "250": 6310,
  "county": 6311,
  "60th": 6312,
  "element": 6313,
  "scare": 6314,
  "brock": 6315,
  "ox": 6316,
  "##ym": 6317,
  "thin": 6318,
  "topping": 6319,
  "est": 6320,
  "cm": 6321,
  "burst": 6322,
  "usa": 6323,
  "##rmi": 6324,
  "jets": 6325,
  "parts": 6326,
  "##nes": 6327,
  "brisbane": 6328,
  "exact": 6329,
  "milo": 6330,
  "haunted": 6331,
  "cowboys": 6332,
  "avoid": 6333,
  "nine": 6334,
  "graduating": 6335,
  "##gie": 6336,
  "##yp": 6337,
  "##wa": 6338,
  "##wy": 6339,
  "##thes": 6340,
  "barley": 6341,
  "races": 6342,
  "circa": 6343,
  "balance": 6344,
  "instant": 6345,
  "confusing": 6346,
  "meaning": 6347,
  "##rich": 6348,
  "##ards": 6349,
  "apr": 6350,
  "##ico": 6351,
  "hut": 6352,
  "##urs": 6353,
  "##fs": 6354,
  "torture": 6355,
  "vine": 6356,
  "industrial": 6357,
  "foraging": 6358,
  "spain": 6359,
  "mice": 6360,
  "finest": 6361,
  "worker": 6362,
  "graduates": 6363,
  "##vie": 6364,
  "torn": 6365,
  "sized": 6366,
  "##sum": 6367,
  "##bi": 6368,
  "500": 6369,
  "dancers": 6370,
  "pitcher": 6371,
  "vase": 6372,
  "byron": 6373,
  "##alle": 6374,
  "##ax": 6375,
  "worries": 6376,
  "fiber": 6377,
  "##ger": 6378,
  "grams": 6379,
  "wagon": 6380,
  "beaches": 6381,
  "bella": 6382,
  "46": 6383,
  "blush": 6384,
  "cuff": 6385,
  "unicorn": 6386,
  "dolls": 6387,
  "breathing": 6388,
  "bala": 6389,
  "##olic": 6390,
  "perch": 6391,
  "nos": 6392,
  "##tal": 6393,
  "tran": 6394,
  "##quil": 6395,
  "excuse": 6396,
  "firm": 6397,
  "billy": 6398,
  "bulls": 6399,
  "signage": 6400,
  "coordinator": 6401,
  "designing": 6402,
  "agree": 6403,
  "sampling": 6404,
  "##win": 6405,
  "##kle": 6406,
  "career": 6407,
  "wrestling": 6408,
  "mvp": 6409,
  "thumbs": 6410,
  "##etto": 6411,
  "slab": 6412,
  "ideal": 6413,
  "scares": 6414,
  "##ub": 6415,
  "possibilities": 6416,
  "##liness": 6417,
  "artwork": 6418,
  "throughout": 6419,
  "dots": 6420,
  "##pipe": 6421,
  "burns": 6422,
  "hedge": 6423,
  "##hog": 6424,
  "stout": 6425,
  "crushing": 6426,
  "settle": 6427,
  "hitch": 6428,
  "timer": 6429,
  "cooper": 6430,
  "hopefully": 6431,
  "feathers": 6432,
  "dwell": 6433,
  "burgundy": 6434,
  "##bri": 6435,
  "keeper": 6436,
  "unto": 6437,
  "quad": 6438,
  "cheerful": 6439,
  "##gger": 6440,
  "heron": 6441,
  "balanced": 6442,
  "des": 6443,
  "##tion": 6444,
  "uber": 6445,
  "##stick": 6446,
  "stu": 6447,
  "##nne": 6448,
  "prayers": 6449,
  "patti": 6450,
  "spruce": 6451,
  "cries": 6452,
  "organized": 6453,
  "##bre": 6454,
  "faithful": 6455,
  "gee": 6456,
  "weekday": 6457,
  "updated": 6458,
  "showers": 6459,
  "##sies": 6460,
  "canopy": 6461,
  "beats": 6462,
  "ours": 6463,
  "gram": 6464,
  "##pressed": 6465,
  "drip": 6466,
  "hint": 6467,
  "disappear": 6468,
  "lyrics": 6469,
  "treating": 6470,
  "pillows": 6471,
  "##ct": 6472,
  "celebrated": 6473,
  "dairy": 6474,
  "whenever": 6475,
  "hugs": 6476,
  "##ash": 6477,
  "occasion": 6478,
  "careful": 6479,
  "spoon": 6480,
  "according": 6481,
  "lighter": 6482,
  "##il": 6483,
  "##ln": 6484,
  "cosmic": 6485,
  "bastard": 6486,
  "graduate": 6487,
  "observatory": 6488,
  "accept": 6489,
  "shut": 6490,
  "cooler": 6491,
  "closest": 6492,
  "june": 6493,
  "alpine": 6494,
  "ze": 6495,
  "wipe": 6496,
  "garbage": 6497,
  "snowfall": 6498,
  "cliff": 6499,
  "flame": 6500,
  "##ses": 6501,
  "##sing": 6502,
  "condition": 6503,
  "comedy": 6504,
  "mit": 6505,
  "##tens": 6506,
  "##elt": 6507,
  "##ering": 6508,
  "wai": 6509,
  "abe": 6510,
  "##rc": 6511,
  "tate": 6512,
  "seven": 6513,
  "##ucci": 6514,
  "##gies": 6515,
  "bows": 6516,
  "kissing": 6517,
  "pirate": 6518,
  "speedy": 6519,
  "##eh": 6520,
  "##ouse": 6521,
  "explanation": 6522,
  "atrium": 6523,
  "smirk": 6524,
  "becomes": 6525,
  "thread": 6526,
  "swept": 6527,
  "quit": 6528,
  "protect": 6529,
  "property": 6530,
  "rains": 6531,
  "covering": 6532,
  "interested": 6533,
  "committed": 6534,
  "fame": 6535,
  "welcoming": 6536,
  "dive": 6537,
  "##house": 6538,
  "splash": 6539,
  "emergency": 6540,
  "info": 6541,
  "soothing": 6542,
  "##bos": 6543,
  "angels": 6544,
  "lotus": 6545,
  "##rds": 6546,
  "creatures": 6547,
  "lurking": 6548,
  "tails": 6549,
  "09": 6550,
  "bees": 6551,
  "neither": 6552,
  "letter": 6553,
  "##press": 6554,
  "surround": 6555,
  "34": 6556,
  "knitting": 6557,
  "facebook": 6558,
  "hardware": 6559,
  "destroying": 6560,
  "naughty": 6561,
  "indoor": 6562,
  "shu": 6563,
  "lower": 6564,
  "##bow": 6565,
  "smart": 6566,
  "tube": 6567,
  "jasmine": 6568,
  "haunt": 6569,
  "##rand": 6570,
  "preparing": 6571,
  "selfish": 6572,
  "stomach": 6573,
  "ducks": 6574,
  "belongs": 6575,
  "anne": 6576,
  "##eda": 6577,
  "compare": 6578,
  "code": 6579,
  "##chin": 6580,
  "##edd": 6581,
  "steering": 6582,
  "##ang": 6583,
  "tire": 6584,
  "les": 6585,
  "drank": 6586,
  "planet": 6587,
  "western": 6588,
  "prop": 6589,
  "##ffy": 6590,
  "user": 6591,
  "carol": 6592,
  "ezra": 6593,
  "faster": 6594,
  "##rri": 6595,
  "##ward": 6596,
  "suite": 6597,
  "##aire": 6598,
  "amazed": 6599,
  "27": 6600,
  "##rin": 6601,
  "herself": 6602,
  "sri": 6603,
  "##rac": 6604,
  "granted": 6605,
  "##pol": 6606,
  "swell": 6607,
  "##vin": 6608,
  "##rug": 6609,
  "bible": 6610,
  "##eth": 6611,
  "##rit": 6612,
  "##zers": 6613,
  "infinite": 6614,
  "capturing": 6615,
  "settings": 6616,
  "admit": 6617,
  "majestic": 6618,
  "tide": 6619,
  "##xt": 6620,
  "##don": 6621,
  "##nay": 6622,
  "harold": 6623,
  "visual": 6624,
  "scream": 6625,
  "uncles": 6626,
  "attempting": 6627,
  "mobile": 6628,
  "arrival": 6629,
  "68": 6630,
  "beta": 6631,
  "##ada": 6632,
  "virginia": 6633,
  "asking": 6634,
  "pushing": 6635,
  "limits": 6636,
  "centre": 6637,
  "beverage": 6638,
  "overlooking": 6639,
  "transition": 6640,
  "ridge": 6641,
  "cuffs": 6642,
  "##22": 6643,
  "longing": 6644,
  "elsa": 6645,
  "lila": 6646,
  "maria": 6647,
  "radio": 6648,
  "shortly": 6649,
  "witch": 6650,
  "piercing": 6651,
  "patty": 6652,
  "crown": 6653,
  "##cia": 6654,
  "screening": 6655,
  "sheets": 6656,
  "handed": 6657,
  "english": 6658,
  "cinema": 6659,
  "##oft": 6660,
  "metallic": 6661,
  "cracked": 6662,
  "capsule": 6663,
  "colourful": 6664,
  "disaster": 6665,
  "client": 6666,
  "acts": 6667,
  "shuttle": 6668,
  "##table": 6669,
  "fed": 6670,
  "jade": 6671,
  "##dt": 6672,
  "opinion": 6673,
  "recommend": 6674,
  "engaged": 6675,
  "offers": 6676,
  "##zie": 6677,
  "perspective": 6678,
  "rent": 6679,
  "sunni": 6680,
  "pretend": 6681,
  "30th": 6682,
  "irony": 6683,
  "brace": 6684,
  "##dal": 6685,
  "wyatt": 6686,
  "seam": 6687,
  "genuine": 6688,
  "##laze": 6689,
  "lakeside": 6690,
  "thoughtful": 6691,
  "tray": 6692,
  "waits": 6693,
  "rage": 6694,
  "slam": 6695,
  "dollar": 6696,
  "therapeutic": 6697,
  "##lly": 6698,
  "lick": 6699,
  "troll": 6700,
  "dolphin": 6701,
  "tech": 6702,
  "thrilled": 6703,
  "ache": 6704,
  "##down": 6705,
  "sally": 6706,
  "tutor": 6707,
  "##ial": 6708,
  "tattoos": 6709,
  "domino": 6710,
  "maxi": 6711,
  "vo": 6712,
  "##ila": 6713,
  "activities": 6714,
  "##owe": 6715,
  "hawaiian": 6716,
  "zombies": 6717,
  "blended": 6718,
  "baker": 6719,
  "steve": 6720,
  "basics": 6721,
  "##ini": 6722,
  "tub": 6723,
  "foam": 6724,
  "pulls": 6725,
  "mask": 6726,
  "snail": 6727,
  "bottoms": 6728,
  "tampa": 6729,
  "stained": 6730,
  "lobby": 6731,
  "mixing": 6732,
  "##lock": 6733,
  "bluff": 6734,
  "overcome": 6735,
  "##sca": 6736,
  "statues": 6737,
  "knots": 6738,
  "visitors": 6739,
  "tyler": 6740,
  "cellar": 6741,
  "thy": 6742,
  "fu": 6743,
  "##dge": 6744,
  "150": 6745,
  "brow": 6746,
  "calming": 6747,
  "nerves": 6748,
  "oval": 6749,
  "yorkshire": 6750,
  "lea": 6751,
  "loyalty": 6752,
  "nay": 6753,
  "5th": 6754,
  "anthony": 6755,
  "necks": 6756,
  "capital": 6757,
  "coats": 6758,
  "giggles": 6759,
  "jerk": 6760,
  "##mus": 6761,
  "curran": 6762,
  "44": 6763,
  "mag": 6764,
  "sox": 6765,
  "alexis": 6766,
  "foil": 6767,
  "nightmares": 6768,
  "raising": 6769,
  "soaked": 6770,
  "sob": 6771,
  "smashed": 6772,
  "muscles": 6773,
  "bulldog": 6774,
  "steal": 6775,
  "joker": 6776,
  "shade": 6777,
  "##sto": 6778,
  "ally": 6779,
  "##oun": 6780,
  "##eed": 6781,
  "warning": 6782,
  "extreme": 6783,
  "nat": 6784,
  "dave": 6785,
  "trap": 6786,
  "50th": 6787,
  "required": 6788,
  "auto": 6789,
  "##more": 6790,
  "greet": 6791,
  "##ole": 6792,
  "stripe": 6793,
  "priorities": 6794,
  "jingle": 6795,
  "cane": 6796,
  "impress": 6797,
  "##fest": 6798,
  "##iff": 6799,
  "spare": 6800,
  "sits": 6801,
  "##chal": 6802,
  "92": 6803,
  "mars": 6804,
  "##tone": 6805,
  "beg": 6806,
  "##ann": 6807,
  "towel": 6808,
  "mighty": 6809,
  "characters": 6810,
  "trim": 6811,
  "split": 6812,
  "patient": 6813,
  "entertainment": 6814,
  "boards": 6815,
  "powered": 6816,
  "##lden": 6817,
  "lump": 6818,
  "neighbourhood": 6819,
  "3a": 6820,
  "##mie": 6821,
  "##ters": 6822,
  "rescued": 6823,
  "silk": 6824,
  "connection": 6825,
  "rule": 6826,
  "##olo": 6827,
  "##tl": 6828,
  "##vert": 6829,
  "underground": 6830,
  "##iga": 6831,
  "butterflies": 6832,
  "afterwards": 6833,
  "##rst": 6834,
  "##lit": 6835,
  "prove": 6836,
  "##nda": 6837,
  "##tree": 6838,
  "scouting": 6839,
  "villa": 6840,
  "nana": 6841,
  "##ads": 6842,
  "discount": 6843,
  "behold": 6844,
  "nightly": 6845,
  "stayed": 6846,
  "harper": 6847,
  "thistle": 6848,
  "versailles": 6849,
  "shoots": 6850,
  "effort": 6851,
  "bombed": 6852,
  "brat": 6853,
  "smack": 6854,
  "##gles": 6855,
  "##buck": 6856,
  "beside": 6857,
  "##eau": 6858,
  "accepting": 6859,
  "ab": 6860,
  "##law": 6861,
  "louis": 6862,
  "##ero": 6863,
  "##dling": 6864,
  "detroit": 6865,
  "security": 6866,
  "au": 6867,
  "##berg": 6868,
  "trailer": 6869,
  "miracle": 6870,
  "mandarin": 6871,
  "shovel": 6872,
  "##ces": 6873,
  "household": 6874,
  "coal": 6875,
  "toni": 6876,
  "resting": 6877,
  "##iya": 6878,
  "hop": 6879,
  "forces": 6880,
  "##taff": 6881,
  "interrupting": 6882,
  "finn": 6883,
  "granite": 6884,
  "arkansas": 6885,
  "anyway": 6886,
  "fixing": 6887,
  "ling": 6888,
  "##uin": 6889,
  "antiques": 6890,
  "##weed": 6891,
  "spread": 6892,
  "remedy": 6893,
  "den": 6894,
  "gazing": 6895,
  "smug": 6896,
  "addicted": 6897,
  "keys": 6898,
  "scent": 6899,
  "nowadays": 6900,
  "bishop": 6901,
  "arriving": 6902,
  "86": 6903,
  "cobalt": 6904,
  "75": 6905,
  "eddie": 6906,
  "bourbon": 6907,
  "66": 6908,
  "rivers": 6909,
  "pale": 6910,
  "crawled": 6911,
  "striped": 6912,
  "bartender": 6913,
  "ignore": 6914,
  "pardon": 6915,
  "cemetery": 6916,
  "crabs": 6917,
  "##bling": 6918,
  "hawthorn": 6919,
  "calgary": 6920,
  "wolves": 6921,
  "pp": 6922,
  "oscar": 6923,
  "sar": 6924,
  "##uet": 6925,
  "##izzly": 6926,
  "cubs": 6927,
  "rabbit": 6928,
  "impromptu": 6929,
  "tool": 6930,
  "competition": 6931,
  "supreme": 6932,
  "neighbours": 6933,
  "created": 6934,
  "pots": 6935,
  "lanterns": 6936,
  "##orted": 6937,
  "exhibition": 6938,
  "hunter": 6939,
  "abstract": 6940,
  "##ryl": 6941,
  "toe": 6942,
  "ben": 6943,
  "##tle": 6944,
  "zoe": 6945,
  "lined": 6946,
  "tourists": 6947,
  "snuck": 6948,
  "canoe": 6949,
  "##ser": 6950,
  "lb": 6951,
  "globe": 6952,
  "matches": 6953,
  "limited": 6954,
  "ray": 6955,
  "##nding": 6956,
  "hallway": 6957,
  "manchester": 6958,
  "markets": 6959,
  "350": 6960,
  "brands": 6961,
  "##ina": 6962,
  "ryan": 6963,
  "##hin": 6964,
  "canine": 6965,
  "downs": 6966,
  "fashioned": 6967,
  "exhibit": 6968,
  "luxurious": 6969,
  "floors": 6970,
  "nik": 6971,
  "performing": 6972,
  "tricks": 6973,
  "turf": 6974,
  "##bler": 6975,
  "##bir": 6976,
  "illinois": 6977,
  "sash": 6978,
  "##imi": 6979,
  "##ura": 6980,
  "mack": 6981,
  "reach": 6982,
  "cycling": 6983,
  "##boys": 6984,
  "arrangement": 6985,
  "independence": 6986,
  "kristen": 6987,
  "##nta": 6988,
  "swiss": 6989,
  "sage": 6990,
  "##mun": 6991,
  "furious": 6992,
  "disc": 6993,
  "individual": 6994,
  "fusion": 6995,
  "amsterdam": 6996,
  "##abi": 6997,
  "banner": 6998,
  "##eal": 6999,
  "straighten": 7000,
  "underwater": 7001,
  "pictured": 7002,
  "wraps": 7003,
  "##oop": 7004,
  "paddy": 7005,
  "whiskey": 7006,
  "mon": 7007,
  "abyss": 7008,
  "bearded": 7009,
  "quo": 7010,
  "gaming": 7011,
  "vineyard": 7012,
  "murder": 7013,
  "internet": 7014,
  "known": 7015,
  "returns": 7016,
  "goofy": 7017,
  "##ography": 7018,
  "ringing": 7019,
  "shock": 7020,
  "sleek": 7021,
  "##ado": 7022,
  "horrible": 7023,
  "stood": 7024,
  "lust": 7025,
  "raiders": 7026,
  "##rim": 7027,
  "ranger": 7028,
  "pissed": 7029,
  "drama": 7030,
  "hk": 7031,
  "ramp": 7032,
  "attire": 7033,
  "polo": 7034,
  "meridian": 7035,
  "mia": 7036,
  "folder": 7037,
  "dec": 7038,
  "recipes": 7039,
  "peninsula": 7040,
  "ku": 7041,
  "##55": 7042,
  "##vet": 7043,
  "smelling": 7044,
  "##hale": 7045,
  "##amo": 7046,
  "seoul": 7047,
  "chuck": 7048,
  "##aint": 7049,
  "izzy": 7050,
  "ribbons": 7051,
  "peru": 7052,
  "parliament": 7053,
  "martini": 7054,
  "##ich": 7055,
  "decade": 7056,
  "coop": 7057,
  "mega": 7058,
  "sealed": 7059,
  "denial": 7060,
  "pens": 7061,
  "noise": 7062,
  "##rut": 7063,
  "correct": 7064,
  "amy": 7065,
  "pigeons": 7066,
  "pairs": 7067,
  "##urt": 7068,
  "washed": 7069,
  "humming": 7070,
  "##bird": 7071,
  "##ics": 7072,
  "otherwise": 7073,
  "bundled": 7074,
  "resident": 7075,
  "vibrant": 7076,
  "##com": 7077,
  "##ji": 7078,
  "chloe": 7079,
  "cruel": 7080,
  "cities": 7081,
  "steady": 7082,
  "clarity": 7083,
  "edges": 7084,
  "cheering": 7085,
  "##ums": 7086,
  "maintain": 7087,
  "tomb": 7088,
  "admire": 7089,
  "wedge": 7090,
  "##rang": 7091,
  "fran": 7092,
  "rewarded": 7093,
  "nursing": 7094,
  "cinderella": 7095,
  "sort": 7096,
  "treatment": 7097,
  "spiders": 7098,
  "puts": 7099,
  "highly": 7100,
  "rack": 7101,
  "takeoff": 7102,
  "liver": 7103,
  "stray": 7104,
  "badly": 7105,
  "cobb": 7106,
  "prague": 7107,
  "album": 7108,
  "gen": 7109,
  "generation": 7110,
  "monthly": 7111,
  "core": 7112,
  "##si": 7113,
  "##mmon": 7114,
  "##bis": 7115,
  "##cus": 7116,
  "dimension": 7117,
  "tunic": 7118,
  "canning": 7119,
  "cushions": 7120,
  "haze": 7121,
  "##ced": 7122,
  "dani": 7123,
  "cloth": 7124,
  "settling": 7125,
  "dealing": 7126,
  "remembrance": 7127,
  "became": 7128,
  "dolphins": 7129,
  "exist": 7130,
  "canyon": 7131,
  "union": 7132,
  "events": 7133,
  "begging": 7134,
  "rink": 7135,
  "physical": 7136,
  "exam": 7137,
  "mantra": 7138,
  "regional": 7139,
  "##ffe": 7140,
  "depot": 7141,
  "handy": 7142,
  "##ility": 7143,
  "##vas": 7144,
  "fade": 7145,
  "tonic": 7146,
  "##ica": 7147,
  "##rf": 7148,
  "launch": 7149,
  "generations": 7150,
  "ter": 7151,
  "##acker": 7152,
  "jogging": 7153,
  "sen": 7154,
  "atlanta": 7155,
  "##hill": 7156,
  "teen": 7157,
  "eagle": 7158,
  "cove": 7159,
  "whom": 7160,
  "fairly": 7161,
  "racer": 7162,
  "##ack": 7163,
  "grounded": 7164,
  "pete": 7165,
  "##ez": 7166,
  "homeless": 7167,
  "brains": 7168,
  "40th": 7169,
  "thigh": 7170,
  "drawings": 7171,
  "kelly": 7172,
  "filthy": 7173,
  "twisted": 7174,
  "##his": 7175,
  "tale": 7176,
  "bot": 7177,
  "nz": 7178,
  "stan": 7179,
  "charleston": 7180,
  "berlin": 7181,
  "woodland": 7182,
  "##ata": 7183,
  "##rica": 7184,
  "revision": 7185,
  "shipment": 7186,
  "scents": 7187,
  "sorts": 7188,
  "fungi": 7189,
  "pastry": 7190,
  "perth": 7191,
  "measures": 7192,
  "colder": 7193,
  "alex": 7194,
  "clip": 7195,
  "designated": 7196,
  "##ace": 7197,
  "crafts": 7198,
  "jr": 7199,
  "pea": 7200,
  "##dom": 7201,
  "38": 7202,
  "rapids": 7203,
  "za": 7204,
  "##storm": 7205,
  "flip": 7206,
  "pressure": 7207,
  "couples": 7208,
  "introducing": 7209,
  "##rch": 7210,
  "skip": 7211,
  "easier": 7212,
  "folk": 7213,
  "romance": 7214,
  "vip": 7215,
  "columbia": 7216,
  "nelson": 7217,
  "forgotten": 7218,
  "aa": 7219,
  "tractor": 7220,
  "millie": 7221,
  "banquet": 7222,
  "upgrade": 7223,
  "recording": 7224,
  "dammit": 7225,
  "traces": 7226,
  "experimenting": 7227,
  "teller": 7228,
  "juvenile": 7229,
  "skipping": 7230,
  "tn": 7231,
  "chinatown": 7232,
  "mister": 7233,
  "runway": 7234,
  "ty": 7235,
  "prototype": 7236,
  "##tes": 7237,
  "reed": 7238,
  "disappointed": 7239,
  "squeezed": 7240,
  "greek": 7241,
  "negative": 7242,
  "otter": 7243,
  "##burg": 7244,
  "hd": 7245,
  "##ores": 7246,
  "##oss": 7247,
  "##bro": 7248,
  "##ree": 7249,
  "sees": 7250,
  "invisible": 7251,
  "##wl": 7252,
  "flew": 7253,
  "stellar": 7254,
  "outgoing": 7255,
  "toward": 7256,
  "danger": 7257,
  "weed": 7258,
  "branches": 7259,
  "overgrown": 7260,
  "branch": 7261,
  "joined": 7262,
  "jamaica": 7263,
  "coma": 7264,
  "wealth": 7265,
  "##ung": 7266,
  "##shot": 7267,
  "##xx": 7268,
  "prize": 7269,
  "herbs": 7270,
  "exceptionally": 7271,
  "scored": 7272,
  "##bay": 7273,
  "fountains": 7274,
  "eternal": 7275,
  "pickup": 7276,
  "##eta": 7277,
  "belt": 7278,
  "##llie": 7279,
  "tango": 7280,
  "##mac": 7281,
  "peaks": 7282,
  "countryside": 7283,
  "carp": 7284,
  "reaching": 7285,
  "exams": 7286,
  "juicy": 7287,
  "zealand": 7288,
  "asshole": 7289,
  "worrying": 7290,
  "showed": 7291,
  "##hak": 7292,
  "halle": 7293,
  "##jah": 7294,
  "fools": 7295,
  "##umber": 7296,
  "casino": 7297,
  "theo": 7298,
  "##igan": 7299,
  "dollars": 7300,
  "##mon": 7301,
  "granny": 7302,
  "##erine": 7303,
  "canal": 7304,
  "##els": 7305,
  "curled": 7306,
  "sophia": 7307,
  "biscuits": 7308,
  "masterpiece": 7309,
  "boil": 7310,
  "plates": 7311,
  "rate": 7312,
  "artistic": 7313,
  "midday": 7314,
  "kingdom": 7315,
  "fungus": 7316,
  "warming": 7317,
  "porter": 7318,
  "contemplating": 7319,
  "response": 7320,
  "##hs": 7321,
  "##olf": 7322,
  "jessica": 7323,
  "role": 7324,
  "remembers": 7325,
  "throat": 7326,
  "braves": 7327,
  "winners": 7328,
  "estate": 7329,
  "sweaty": 7330,
  "##hand": 7331,
  "##some": 7332,
  "executive": 7333,
  "grid": 7334,
  "##pee": 7335,
  "champion": 7336,
  "saved": 7337,
  "##ese": 7338,
  "shaping": 7339,
  "fully": 7340,
  "atlantic": 7341,
  "intimate": 7342,
  "styled": 7343,
  "packages": 7344,
  "##ko": 7345,
  "bonding": 7346,
  "thighs": 7347,
  "weakness": 7348,
  "##post": 7349,
  "cannon": 7350,
  "##inga": 7351,
  "curl": 7352,
  "bodies": 7353,
  "stockings": 7354,
  "seating": 7355,
  "knight": 7356,
  "feb": 7357,
  "##ists": 7358,
  "ditch": 7359,
  "queue": 7360,
  "tennessee": 7361,
  "sings": 7362,
  "understands": 7363,
  "hail": 7364,
  "##ock": 7365,
  "aristotle": 7366,
  "##af": 7367,
  "outing": 7368,
  "consider": 7369,
  "##cite": 7370,
  "replace": 7371,
  "denver": 7372,
  "encounter": 7373,
  "aerial": 7374,
  "sportsman": 7375,
  "effects": 7376,
  "georgia": 7377,
  "honeymoon": 7378,
  "jessie": 7379,
  "##xi": 7380,
  "inspire": 7381,
  "clears": 7382,
  "improvement": 7383,
  "fork": 7384,
  "olympics": 7385,
  "lego": 7386,
  "##cation": 7387,
  "faux": 7388,
  "glue": 7389,
  "tops": 7390,
  "earn": 7391,
  "##zo": 7392,
  "##elo": 7393,
  "terrifying": 7394,
  "brain": 7395,
  "sv": 7396,
  "ia": 7397,
  "rocked": 7398,
  "spoken": 7399,
  "mount": 7400,
  "skiing": 7401,
  "grit": 7402,
  "ave": 7403,
  "barrel": 7404,
  "##udge": 7405,
  "blu": 7406,
  "nearly": 7407,
  "bicycle": 7408,
  "swallow": 7409,
  "guide": 7410,
  "sculptures": 7411,
  "graham": 7412,
  "##aking": 7413,
  "amused": 7414,
  "##su": 7415,
  "lance": 7416,
  "95": 7417,
  "##smo": 7418,
  "##pit": 7419,
  "chaos": 7420,
  "palms": 7421,
  "poetry": 7422,
  "##page": 7423,
  "starr": 7424,
  "##hr": 7425,
  "premiere": 7426,
  "creates": 7427,
  "blocks": 7428,
  "strangers": 7429,
  "miller": 7430,
  "taxi": 7431,
  "bumped": 7432,
  "crow": 7433,
  "dragons": 7434,
  "afford": 7435,
  "##ae": 7436,
  "conditioning": 7437,
  "remote": 7438,
  "##ology": 7439,
  "resort": 7440,
  "sprint": 7441,
  "vicious": 7442,
  "connect": 7443,
  "organizing": 7444,
  "vortex": 7445,
  "##uri": 7446,
  "victim": 7447,
  "liam": 7448,
  "vans": 7449,
  "##coll": 7450,
  "beetle": 7451,
  "##mite": 7452,
  "hideout": 7453,
  "universal": 7454,
  "studios": 7455,
  "anxiety": 7456,
  "wishes": 7457,
  "levi": 7458,
  "portion": 7459,
  "cast": 7460,
  "##pone": 7461,
  "bulk": 7462,
  "##lands": 7463,
  "explorer": 7464,
  "##oint": 7465,
  "##mber": 7466,
  "tumble": 7467,
  "stacked": 7468,
  "illustrations": 7469,
  "passing": 7470,
  "##sf": 7471,
  "stamps": 7472,
  "hack": 7473,
  "religion": 7474,
  "marvelous": 7475,
  "solitude": 7476,
  "videos": 7477,
  "download": 7478,
  "handful": 7479,
  "##sr": 7480,
  "trapped": 7481,
  "nervous": 7482,
  "##lus": 7483,
  "regret": 7484,
  "swans": 7485,
  "load": 7486,
  "phantom": 7487,
  "marry": 7488,
  "initial": 7489,
  "cushion": 7490,
  "marching": 7491,
  "improved": 7492,
  "##sl": 7493,
  "pregnant": 7494,
  "flap": 7495,
  "belgian": 7496,
  "rust": 7497,
  "century": 7498,
  "strip": 7499,
  "sanity": 7500,
  "paired": 7501,
  "shotgun": 7502,
  "##ci": 7503,
  "##ill": 7504,
  "##taking": 7505,
  "reads": 7506,
  "sb": 7507,
  "backing": 7508,
  "tallest": 7509,
  "semester": 7510,
  "remembered": 7511,
  "trench": 7512,
  "vector": 7513,
  "template": 7514,
  "canary": 7515,
  "##get": 7516,
  "##dict": 7517,
  "amongst": 7518,
  "weak": 7519,
  "penis": 7520,
  "##gano": 7521,
  "flour": 7522,
  "expression": 7523,
  "nesting": 7524,
  "clothing": 7525,
  "loads": 7526,
  "##nia": 7527,
  "sanctuary": 7528,
  "tidy": 7529,
  "popped": 7530,
  "wizard": 7531,
  "boost": 7532,
  "deluxe": 7533,
  "growth": 7534,
  "colorado": 7535,
  "france": 7536,
  "license": 7537,
  "touring": 7538,
  "warriors": 7539,
  "upper": 7540,
  "attached": 7541,
  "broncos": 7542,
  "receive": 7543,
  "boredom": 7544,
  "preparations": 7545,
  "ancient": 7546,
  "argue": 7547,
  "logic": 7548,
  "mistakes": 7549,
  "heavenly": 7550,
  "##cher": 7551,
  "interest": 7552,
  "delta": 7553,
  "ant": 7554,
  "taipei": 7555,
  "luke": 7556,
  "chess": 7557,
  "experienced": 7558,
  "blah": 7559,
  "portraits": 7560,
  "scale": 7561,
  "cord": 7562,
  "sake": 7563,
  "alberta": 7564,
  "extraordinary": 7565,
  "bruce": 7566,
  "consists": 7567,
  "representing": 7568,
  "jays": 7569,
  "##see": 7570,
  "review": 7571,
  "insist": 7572,
  "ana": 7573,
  "shouldn": 7574,
  "##nco": 7575,
  "##gard": 7576,
  "91": 7577,
  "anchor": 7578,
  "corpus": 7579,
  "bey": 7580,
  "farms": 7581,
  "environment": 7582,
  "internship": 7583,
  "frogs": 7584,
  "leap": 7585,
  "##rm": 7586,
  "##ented": 7587,
  "lettering": 7588,
  "vol": 7589,
  "discussing": 7590,
  "whether": 7591,
  "snoop": 7592,
  "##cute": 7593,
  "miniature": 7594,
  "ruining": 7595,
  "romeo": 7596,
  "##tr": 7597,
  "##uth": 7598,
  "junior": 7599,
  "##body": 7600,
  "##ddy": 7601,
  "literature": 7602,
  "hearing": 7603,
  "kerry": 7604,
  "cosmetic": 7605,
  "soldiers": 7606,
  "investment": 7607,
  "ruin": 7608,
  "clayton": 7609,
  "attacks": 7610,
  "##icing": 7611,
  "pins": 7612,
  "themselves": 7613,
  "consistency": 7614,
  "standard": 7615,
  "shredded": 7616,
  "pace": 7617,
  "rounds": 7618,
  "85": 7619,
  "eternity": 7620,
  "aim": 7621,
  "wiped": 7622,
  "adopt": 7623,
  "##ras": 7624,
  "kin": 7625,
  "harvesting": 7626,
  "sighting": 7627,
  "int": 7628,
  "##chen": 7629,
  "overhead": 7630,
  "confidence": 7631,
  "airplane": 7632,
  "program": 7633,
  "connected": 7634,
  "physically": 7635,
  "mentally": 7636,
  "bricks": 7637,
  "slack": 7638,
  "entrance": 7639,
  "os": 7640,
  "hostel": 7641,
  "gabby": 7642,
  "asks": 7643,
  "cassie": 7644,
  "elementary": 7645,
  "battery": 7646,
  "batter": 7647,
  "hammer": 7648,
  "needle": 7649,
  "unlikely": 7650,
  "function": 7651,
  "bathed": 7652,
  "counter": 7653,
  "##ray": 7654,
  "planting": 7655,
  "greyhound": 7656,
  "brisk": 7657,
  "comics": 7658,
  "camden": 7659,
  "tours": 7660,
  "hopping": 7661,
  "habits": 7662,
  "develop": 7663,
  "penguins": 7664,
  "birch": 7665,
  "##ched": 7666,
  "attractive": 7667,
  "drift": 7668,
  "indiana": 7669,
  "claimed": 7670,
  "##tz": 7671,
  "##had": 7672,
  "arch": 7673,
  "scrap": 7674,
  "missy": 7675,
  "pm": 7676,
  "timber": 7677,
  "disgusting": 7678,
  "architectural": 7679,
  "tempting": 7680,
  "bruise": 7681,
  "orchard": 7682,
  "##glass": 7683,
  "carmel": 7684,
  "noah": 7685,
  "##riz": 7686,
  "##ona": 7687,
  "images": 7688,
  "##gor": 7689,
  "##illa": 7690,
  "belgium": 7691,
  "somewhat": 7692,
  "million": 7693,
  "kat": 7694,
  "31": 7695,
  "64": 7696,
  "##zen": 7697,
  "debating": 7698,
  "satisfying": 7699,
  "##nts": 7700,
  "outer": 7701,
  "saturdays": 7702,
  "seconds": 7703,
  "relate": 7704,
  "##kong": 7705,
  "clay": 7706,
  "follows": 7707,
  "rushing": 7708,
  "mann": 7709,
  "welcomed": 7710,
  "labels": 7711,
  "marc": 7712,
  "irish": 7713,
  "gates": 7714,
  "##nan": 7715,
  "herd": 7716,
  "casually": 7717,
  "coastal": 7718,
  "puppet": 7719,
  "ss": 7720,
  "nick": 7721,
  "paths": 7722,
  "chose": 7723,
  "pike": 7724,
  "delays": 7725,
  "infused": 7726,
  "sorted": 7727,
  "##giving": 7728,
  "leopard": 7729,
  "mane": 7730,
  "trend": 7731,
  "standards": 7732,
  "2010": 7733,
  "sept": 7734,
  "volunteer": 7735,
  "29": 7736,
  "##unce": 7737,
  "banks": 7738,
  "speech": 7739,
  "achievement": 7740,
  "ambition": 7741,
  "##ues": 7742,
  "engine": 7743,
  "pitch": 7744,
  "isle": 7745,
  "thus": 7746,
  "mig": 7747,
  "cliffs": 7748,
  "uno": 7749,
  "shaw": 7750,
  "experiences": 7751,
  "##uck": 7752,
  "deeper": 7753,
  "1984": 7754,
  "mainstream": 7755,
  "gale": 7756,
  "flames": 7757,
  "distracted": 7758,
  "bucks": 7759,
  "213": 7760,
  "amanda": 7761,
  "##phones": 7762,
  "delay": 7763,
  "panic": 7764,
  "sherlock": 7765,
  "rue": 7766,
  "instantly": 7767,
  "elephants": 7768,
  "lizard": 7769,
  "higher": 7770,
  "appetite": 7771,
  "clearing": 7772,
  "##ley": 7773,
  "gorge": 7774,
  "bobby": 7775,
  "talks": 7776,
  "bursting": 7777,
  "62": 7778,
  "classroom": 7779,
  "malaysia": 7780,
  "eden": 7781,
  "mischievous": 7782,
  "escaping": 7783,
  "bicycles": 7784,
  "africa": 7785,
  "##wer": 7786,
  "##athlon": 7787,
  "wadi": 7788,
  "##torm": 7789,
  "stockholm": 7790,
  "##nick": 7791,
  "david": 7792,
  "manager": 7793,
  "bologna": 7794,
  "supermarket": 7795,
  "##rad": 7796,
  "crate": 7797,
  "volume": 7798,
  "##boot": 7799,
  "joke": 7800,
  "##rew": 7801,
  "##loading": 7802,
  "carter": 7803,
  "##ask": 7804,
  "reveal": 7805,
  "burned": 7806,
  "##test": 7807,
  "elements": 7808,
  "sneaking": 7809,
  "packs": 7810,
  "appears": 7811,
  "ton": 7812,
  "cardboard": 7813,
  "##bles": 7814,
  "helen": 7815,
  "temporary": 7816,
  "solve": 7817,
  "##pace": 7818,
  "drawers": 7819,
  "##hen": 7820,
  "upset": 7821,
  "affair": 7822,
  "##tc": 7823,
  "lauren": 7824,
  "carries": 7825,
  "rite": 7826,
  "explaining": 7827,
  "anna": 7828,
  "sometime": 7829,
  "swat": 7830,
  "##eto": 7831,
  "dew": 7832,
  "rights": 7833,
  "rn": 7834,
  "alert": 7835,
  "surfer": 7836,
  "beating": 7837,
  "musician": 7838,
  "voodoo": 7839,
  "lola": 7840,
  "tia": 7841,
  "700": 7842,
  "technology": 7843,
  "freeze": 7844,
  "plush": 7845,
  "dentist": 7846,
  "orientation": 7847,
  "##now": 7848,
  "spanish": 7849,
  "groceries": 7850,
  "illegal": 7851,
  "tears": 7852,
  "shed": 7853,
  "lays": 7854,
  "claws": 7855,
  "gangster": 7856,
  "arsenal": 7857,
  "entertain": 7858,
  "fighter": 7859,
  "costumes": 7860,
  "exit": 7861,
  "baskets": 7862,
  "35": 7863,
  "waving": 7864,
  "creativity": 7865,
  "flood": 7866,
  "##hem": 7867,
  "kn": 7868,
  "finer": 7869,
  "courtyard": 7870,
  "wales": 7871,
  "makeshift": 7872,
  "emotion": 7873,
  "manners": 7874,
  "advertising": 7875,
  "pages": 7876,
  "regal": 7877,
  "mustang": 7878,
  "ritual": 7879,
  "pulling": 7880,
  "popular": 7881,
  "##mate": 7882,
  "pays": 7883,
  "divine": 7884,
  "comeback": 7885,
  "aria": 7886,
  "actions": 7887,
  "##pass": 7888,
  "hugging": 7889,
  "##uting": 7890,
  "geometric": 7891,
  "redhead": 7892,
  "expecting": 7893,
  "kc": 7894,
  "rangers": 7895,
  "macy": 7896,
  "framed": 7897,
  "acquired": 7898,
  "shoulder": 7899,
  "singer": 7900,
  "liverpool": 7901,
  "approved": 7902,
  "jurassic": 7903,
  "birth": 7904,
  "turkish": 7905,
  "watering": 7906,
  "##chy": 7907,
  "vampire": 7908,
  "general": 7909,
  "framing": 7910,
  "disguise": 7911,
  "##bla": 7912,
  "giggle": 7913,
  "alarm": 7914,
  "remains": 7915,
  "stocks": 7916,
  "melting": 7917,
  "##ast": 7918,
  "##inating": 7919,
  "jane": 7920,
  "expectations": 7921,
  "description": 7922,
  "nostalgia": 7923,
  "##moto": 7924,
  "##cles": 7925,
  "bullshit": 7926,
  "##band": 7927,
  "crushed": 7928,
  "89": 7929,
  "access": 7930,
  "earl": 7931,
  "37": 7932,
  "dusty": 7933,
  "greece": 7934,
  "celeste": 7935,
  "##enity": 7936,
  "bills": 7937,
  "regrets": 7938,
  "cubic": 7939,
  "approaching": 7940,
  "##ink": 7941,
  "tunnels": 7942,
  "terribly": 7943,
  "boxer": 7944,
  "recycled": 7945,
  "raise": 7946,
  "coup": 7947,
  "guilty": 7948,
  "robe": 7949,
  "diary": 7950,
  "inviting": 7951,
  "purchases": 7952,
  "occasionally": 7953,
  "##llin": 7954,
  "mimi": 7955,
  "destined": 7956,
  "yearbook": 7957,
  "parks": 7958,
  "offer": 7959,
  "sore": 7960,
  "hai": 7961,
  "ud": 7962,
  "trolley": 7963,
  "lbs": 7964,
  "collect": 7965,
  "grows": 7966,
  "1920s": 7967,
  "##ndo": 7968,
  "transform": 7969,
  "dubai": 7970,
  "chelsea": 7971,
  "##fur": 7972,
  "whispers": 7973,
  "sensitive": 7974,
  "frames": 7975,
  "dances": 7976,
  "mosquito": 7977,
  "decker": 7978,
  "diabetes": 7979,
  "lucas": 7980,
  "nothin": 7981,
  "ref": 7982,
  "##resh": 7983,
  "backdrop": 7984,
  "oklahoma": 7985,
  "starving": 7986,
  "##lls": 7987,
  "lodge": 7988,
  "bog": 7989,
  "fuss": 7990,
  "ceilings": 7991,
  "introduce": 7992,
  "##mma": 7993,
  "##das": 7994,
  "curling": 7995,
  "ala": 7996,
  "guarding": 7997,
  "##yan": 7998,
  "##dot": 7999,
  "flavors": 8000,
  "##imate": 8001,
  "##print": 8002,
  "##rest": 8003,
  "##ond": 8004,
  "theta": 8005,
  "##pes": 8006,
  "yourselves": 8007,
  "##cous": 8008,
  "adi": 8009,
  "describes": 8010,
  "emails": 8011,
  "commercial": 8012,
  "determine": 8013,
  "sacramento": 8014,
  "wanting": 8015,
  "scenic": 8016,
  "coloured": 8017,
  "unbelievable": 8018,
  "dizzy": 8019,
  "dared": 8020,
  "pep": 8021,
  "##urg": 8022,
  "##tou": 8023,
  "tak": 8024,
  "forecast": 8025,
  "accomplishment": 8026,
  "teaser": 8027,
  "dino": 8028,
  "gymnastics": 8029,
  "##horse": 8030,
  "##ign": 8031,
  "ashton": 8032,
  "##lal": 8033,
  "##quisite": 8034,
  "bargain": 8035,
  "pageant": 8036,
  "vietnamese": 8037,
  "ky": 8038,
  "ripe": 8039,
  "##vita": 8040,
  "stem": 8041,
  "counts": 8042,
  "catches": 8043,
  "##iers": 8044,
  "republic": 8045,
  "verge": 8046,
  "##pie": 8047,
  "demons": 8048,
  "allow": 8049,
  "services": 8050,
  "twilight": 8051,
  "extended": 8052,
  "vera": 8053,
  "uses": 8054,
  "locks": 8055,
  "pun": 8056,
  "net": 8057,
  "solving": 8058,
  "hay": 8059,
  "temptation": 8060,
  "bailey": 8061,
  "##watch": 8062,
  "tangled": 8063,
  "mm": 8064,
  "eater": 8065,
  "##gm": 8066,
  "##sch": 8067,
  "constant": 8068,
  "buried": 8069,
  "pod": 8070,
  "squat": 8071,
  "##lb": 8072,
  "souls": 8073,
  "slept": 8074,
  "sarah": 8075,
  "##llas": 8076,
  "pleasant": 8077,
  "rebel": 8078,
  "checked": 8079,
  "philippines": 8080,
  "admiring": 8081,
  "makers": 8082,
  "ghosts": 8083,
  "cruising": 8084,
  "##ect": 8085,
  "kevin": 8086,
  "trans": 8087,
  "ward": 8088,
  "herbal": 8089,
  "tempted": 8090,
  "passionate": 8091,
  "largest": 8092,
  "leaning": 8093,
  "riot": 8094,
  "evergreen": 8095,
  "requires": 8096,
  "spun": 8097,
  "exquisite": 8098,
  "rome": 8099,
  "chilled": 8100,
  "ross": 8101,
  "tier": 8102,
  "##vor": 8103,
  "baths": 8104,
  "bison": 8105,
  "barbecue": 8106,
  "vanity": 8107,
  "54": 8108,
  "##lash": 8109,
  "muscle": 8110,
  "ravens": 8111,
  "ami": 8112,
  "inch": 8113,
  "##gent": 8114,
  "flora": 8115,
  "ib": 8116,
  "carrying": 8117,
  "risk": 8118,
  "##ples": 8119,
  "deliveries": 8120,
  "clan": 8121,
  "##orin": 8122,
  "##ony": 8123,
  "mistake": 8124,
  "##rra": 8125,
  "##comb": 8126,
  "workplace": 8127,
  "separated": 8128,
  "brushes": 8129,
  "quiz": 8130,
  "peeking": 8131,
  "##nd": 8132,
  "mage": 8133,
  "noisy": 8134,
  "deeply": 8135,
  "bones": 8136,
  "linen": 8137,
  "racks": 8138,
  "whose": 8139,
  "phase": 8140,
  "experiment": 8141,
  "sides": 8142,
  "drown": 8143,
  "carolina": 8144,
  "scientist": 8145,
  "warrior": 8146,
  "##oj": 8147,
  "mari": 8148,
  "shrine": 8149,
  "roadside": 8150,
  "regardless": 8151,
  "consumed": 8152,
  "territory": 8153,
  "curiosity": 8154,
  "gathering": 8155,
  "dunes": 8156,
  "throws": 8157,
  "cedar": 8158,
  "february": 8159,
  "reflected": 8160,
  "leadership": 8161,
  "##iel": 8162,
  "balancing": 8163,
  "stretched": 8164,
  "wand": 8165,
  "##sco": 8166,
  "##mere": 8167,
  "amber": 8168,
  "teenager": 8169,
  "motion": 8170,
  "weapon": 8171,
  "ceramic": 8172,
  "copenhagen": 8173,
  "tattooed": 8174,
  "approve": 8175,
  "nurses": 8176,
  "dean": 8177,
  "uniform": 8178,
  "stitches": 8179,
  "forgive": 8180,
  "deadly": 8181,
  "##rier": 8182,
  "cleared": 8183,
  "pollen": 8184,
  "violin": 8185,
  "loading": 8186,
  "item": 8187,
  "shakes": 8188,
  "neutral": 8189,
  "sudden": 8190,
  "##ight": 8191,
  "sword": 8192,
  "ava": 8193,
  "lame": 8194,
  "drowning": 8195,
  "##belt": 8196,
  "patrol": 8197,
  "larger": 8198,
  "90s": 8199,
  "drawer": 8200,
  "pregnancy": 8201,
  "auction": 8202,
  "mystic": 8203,
  "taiwan": 8204,
  "##nn": 8205,
  "##sund": 8206,
  "destiny": 8207,
  "##top": 8208,
  "##won": 8209,
  "##hole": 8210,
  "nautical": 8211,
  "heath": 8212,
  "wasting": 8213,
  "bearer": 8214,
  "doin": 8215,
  "ponytail": 8216,
  "sham": 8217,
  "medal": 8218,
  "fury": 8219,
  "alice": 8220,
  "films": 8221,
  "entertained": 8222,
  "airplanes": 8223,
  "parallel": 8224,
  "michael": 8225,
  "brows": 8226,
  "circuit": 8227,
  "##old": 8228,
  "jett": 8229,
  "psalm": 8230,
  "wan": 8231,
  "reminding": 8232,
  "##rse": 8233,
  "lasted": 8234,
  "crowned": 8235,
  "trainer": 8236,
  "edgar": 8237,
  "stacks": 8238,
  "##cards": 8239,
  "canton": 8240,
  "##zzling": 8241,
  "milky": 8242,
  "##fb": 8243,
  "toby": 8244,
  "soldier": 8245,
  "cupboard": 8246,
  "enjoys": 8247,
  "##aya": 8248,
  "platinum": 8249,
  "android": 8250,
  "mocking": 8251,
  "nectar": 8252,
  "jackets": 8253,
  "##ku": 8254,
  "##ination": 8255,
  "pip": 8256,
  "##ml": 8257,
  "combined": 8258,
  "daze": 8259,
  "girlfriends": 8260,
  "phones": 8261,
  "bingo": 8262,
  "sacred": 8263,
  "geometry": 8264,
  "blink": 8265,
  "alien": 8266,
  "##41": 8267,
  "##18": 8268,
  "##40": 8269,
  "facing": 8270,
  "##vel": 8271,
  "hostess": 8272,
  "tanned": 8273,
  "floats": 8274,
  "confident": 8275,
  "martha": 8276,
  "speechless": 8277,
  "spiral": 8278,
  "links": 8279,
  "wren": 8280,
  "spying": 8281,
  "panorama": 8282,
  "upstairs": 8283,
  "temps": 8284,
  "karma": 8285,
  "buzzing": 8286,
  "filmmaking": 8287,
  "diving": 8288,
  "##lining": 8289,
  "division": 8290,
  "fears": 8291,
  "spirits": 8292,
  "fighters": 8293,
  "orleans": 8294,
  "##vi": 8295,
  "manage": 8296,
  "concentration": 8297,
  "pilot": 8298,
  "browns": 8299,
  "weren": 8300,
  "luna": 8301,
  "moist": 8302,
  "clinic": 8303,
  "leads": 8304,
  "essence": 8305,
  "opposite": 8306,
  "jamie": 8307,
  "##ati": 8308,
  "flipped": 8309,
  "revenge": 8310,
  "##wash": 8311,
  "invite": 8312,
  "enjoyable": 8313,
  "fascinated": 8314,
  "besides": 8315,
  "finch": 8316,
  "##dh": 8317,
  "fabrics": 8318,
  "##cala": 8319,
  "closely": 8320,
  "depth": 8321,
  "cambodia": 8322,
  "fascinating": 8323,
  "lack": 8324,
  "##isi": 8325,
  "##ida": 8326,
  "ds": 8327,
  "tad": 8328,
  "luckily": 8329,
  "ec": 8330,
  "heavens": 8331,
  "3d": 8332,
  "fiesta": 8333,
  "##wart": 8334,
  "budget": 8335,
  "##sky": 8336,
  "pac": 8337,
  "##burn": 8338,
  "ecuador": 8339,
  "seated": 8340,
  "##sat": 8341,
  "##jk": 8342,
  "chico": 8343,
  "modeling": 8344,
  "scheme": 8345,
  "schools": 8346,
  "valleys": 8347,
  "audience": 8348,
  "chapters": 8349,
  "adventurous": 8350,
  "multiple": 8351,
  "##cans": 8352,
  "caesar": 8353,
  "concrete": 8354,
  "##np": 8355,
  "motorcycle": 8356,
  "61": 8357,
  "thirsty": 8358,
  "seasoned": 8359,
  "pearls": 8360,
  "parrot": 8361,
  "300": 8362,
  "##rro": 8363,
  "96": 8364,
  "commence": 8365,
  "sounding": 8366,
  "comforting": 8367,
  "wounds": 8368,
  "discussion": 8369,
  "danced": 8370,
  "##ard": 8371,
  "dale": 8372,
  "cork": 8373,
  "##ures": 8374,
  "sadly": 8375,
  "ae": 8376,
  "damp": 8377,
  "alain": 8378,
  "##hol": 8379,
  "exploration": 8380,
  "immediately": 8381,
  "chopper": 8382,
  "titanic": 8383,
  "05": 8384,
  "aqua": 8385,
  "rocker": 8386,
  "printing": 8387,
  "presence": 8388,
  "logos": 8389,
  "hazy": 8390,
  "bulldogs": 8391,
  "verse": 8392,
  "##mit": 8393,
  "chances": 8394,
  "wondered": 8395,
  "armed": 8396,
  "genesis": 8397,
  "##iness": 8398,
  "thomas": 8399,
  "foreign": 8400,
  "mixture": 8401,
  "hospitality": 8402,
  "sorting": 8403,
  "blackened": 8404,
  "##ght": 8405,
  "tribe": 8406,
  "sur": 8407,
  "spoke": 8408,
  "wright": 8409,
  "vertical": 8410,
  "earning": 8411,
  "vogue": 8412,
  "##tic": 8413,
  "foliage": 8414,
  "impression": 8415,
  "chuckle": 8416,
  "##side": 8417,
  "tau": 8418,
  "mn": 8419,
  "trainers": 8420,
  "reserve": 8421,
  "##lma": 8422,
  "##ott": 8423,
  "1950": 8424,
  "alligator": 8425,
  "honesty": 8426,
  "newfoundland": 8427,
  "##may": 8428,
  "related": 8429,
  "consultation": 8430,
  "##ands": 8431,
  "##cott": 8432,
  "scissors": 8433,
  "heating": 8434,
  "##ditional": 8435,
  "renegade": 8436,
  "returned": 8437,
  "serves": 8438,
  "vermont": 8439,
  "businesses": 8440,
  "##sg": 8441,
  "fortunes": 8442,
  "downstairs": 8443,
  "indy": 8444,
  "president": 8445,
  "feeds": 8446,
  "napkin": 8447,
  "flop": 8448,
  "keen": 8449,
  "##beam": 8450,
  "georgetown": 8451,
  "##vron": 8452,
  "owners": 8453,
  "sac": 8454,
  "micro": 8455,
  "chart": 8456,
  "closes": 8457,
  "distressed": 8458,
  "hamburger": 8459,
  "##cape": 8460,
  "interrupted": 8461,
  "travelling": 8462,
  "cease": 8463,
  "wreck": 8464,
  "underway": 8465,
  "peanuts": 8466,
  "horseback": 8467,
  "cole": 8468,
  "traditions": 8469,
  "walkway": 8470,
  "luggage": 8471,
  "keith": 8472,
  "blocking": 8473,
  "object": 8474,
  "##tub": 8475,
  "transit": 8476,
  "ankle": 8477,
  "shepherd": 8478,
  "##tm": 8479,
  "viewing": 8480,
  "##year": 8481,
  "players": 8482,
  "chunks": 8483,
  "solar": 8484,
  "bahamas": 8485,
  "tombstone": 8486,
  "fleeting": 8487,
  "noon": 8488,
  "##dr": 8489,
  "wavy": 8490,
  "##coming": 8491,
  "span": 8492,
  "annie": 8493,
  "manifest": 8494,
  "installed": 8495,
  "powers": 8496,
  "funeral": 8497,
  "opens": 8498,
  "slick": 8499,
  "monsoon": 8500,
  "royals": 8501,
  "60s": 8502,
  "refuse": 8503,
  "##zzi": 8504,
  "grave": 8505,
  "devotion": 8506,
  "areas": 8507,
  "##ste": 8508,
  "avery": 8509,
  "slave": 8510,
  "catholic": 8511,
  "larry": 8512,
  "##rret": 8513,
  "63": 8514,
  "feedback": 8515,
  "##rell": 8516,
  "jobs": 8517,
  "rats": 8518,
  "shutter": 8519,
  "minimum": 8520,
  "rugby": 8521,
  "##mis": 8522,
  "symphony": 8523,
  "joshua": 8524,
  "f1": 8525,
  "adam": 8526,
  "heel": 8527,
  "broad": 8528,
  "pittsburgh": 8529,
  "##zia": 8530,
  "pixels": 8531,
  "<unk>": 8532,
  "<start>": 8533,
  "<end>": 8534,
  "<pad>": 0
}